const unsigned char loong_cnn_model_simple_tflite[] = {
  0x1c, 0x00, 0x00, 0x00, 0x54, 0x46, 0x4c, 0x33, 0x14, 0x00, 0x20, 0x00,
  0x1c, 0x00, 0x18, 0x00, 0x14, 0x00, 0x10, 0x00, 0x0c, 0x00, 0x00, 0x00,
  0x08, 0x00, 0x04, 0x00, 0x14, 0x00, 0x00, 0x00, 0x1c, 0x00, 0x00, 0x00,
  0x80, 0x00, 0x00, 0x00, 0xd8, 0x00, 0x00, 0x00, 0x90, 0x32, 0x00, 0x00,
  0xa0, 0x32, 0x00, 0x00, 0x78, 0x3f, 0x00, 0x00, 0x03, 0x00, 0x00, 0x00,
  0x01, 0x00, 0x00, 0x00, 0x04, 0x00, 0x00, 0x00, 0x5e, 0xcc, 0xff, 0xff,
  0x0c, 0x00, 0x00, 0x00, 0x1c, 0x00, 0x00, 0x00, 0x38, 0x00, 0x00, 0x00,
  0x0f, 0x00, 0x00, 0x00, 0x73, 0x65, 0x72, 0x76, 0x69, 0x6e, 0x67, 0x5f,
  0x64, 0x65, 0x66, 0x61, 0x75, 0x6c, 0x74, 0x00, 0x01, 0x00, 0x00, 0x00,
  0x04, 0x00, 0x00, 0x00, 0x9c, 0xff, 0xff, 0xff, 0x15, 0x00, 0x00, 0x00,
  0x04, 0x00, 0x00, 0x00, 0x07, 0x00, 0x00, 0x00, 0x64, 0x65, 0x6e, 0x73,
  0x65, 0x5f, 0x31, 0x00, 0x01, 0x00, 0x00, 0x00, 0x04, 0x00, 0x00, 0x00,
  0x3e, 0xcd, 0xff, 0xff, 0x04, 0x00, 0x00, 0x00, 0x07, 0x00, 0x00, 0x00,
  0x69, 0x6e, 0x70, 0x75, 0x74, 0x5f, 0x31, 0x00, 0x02, 0x00, 0x00, 0x00,
  0x34, 0x00, 0x00, 0x00, 0x04, 0x00, 0x00, 0x00, 0xdc, 0xff, 0xff, 0xff,
  0x18, 0x00, 0x00, 0x00, 0x04, 0x00, 0x00, 0x00, 0x13, 0x00, 0x00, 0x00,
  0x43, 0x4f, 0x4e, 0x56, 0x45, 0x52, 0x53, 0x49, 0x4f, 0x4e, 0x5f, 0x4d,
  0x45, 0x54, 0x41, 0x44, 0x41, 0x54, 0x41, 0x00, 0x08, 0x00, 0x0c, 0x00,
  0x08, 0x00, 0x04, 0x00, 0x08, 0x00, 0x00, 0x00, 0x17, 0x00, 0x00, 0x00,
  0x04, 0x00, 0x00, 0x00, 0x13, 0x00, 0x00, 0x00, 0x6d, 0x69, 0x6e, 0x5f,
  0x72, 0x75, 0x6e, 0x74, 0x69, 0x6d, 0x65, 0x5f, 0x76, 0x65, 0x72, 0x73,
  0x69, 0x6f, 0x6e, 0x00, 0x19, 0x00, 0x00, 0x00, 0xb4, 0x31, 0x00, 0x00,
  0xac, 0x31, 0x00, 0x00, 0x8c, 0x31, 0x00, 0x00, 0x5c, 0x31, 0x00, 0x00,
  0x1c, 0x31, 0x00, 0x00, 0x5c, 0x2f, 0x00, 0x00, 0xcc, 0x2a, 0x00, 0x00,
  0x3c, 0x1d, 0x00, 0x00, 0xec, 0x1c, 0x00, 0x00, 0xd0, 0x1c, 0x00, 0x00,
  0xb8, 0x1c, 0x00, 0x00, 0xa8, 0x01, 0x00, 0x00, 0xd8, 0x00, 0x00, 0x00,
  0xd0, 0x00, 0x00, 0x00, 0xc8, 0x00, 0x00, 0x00, 0xc0, 0x00, 0x00, 0x00,
  0xb8, 0x00, 0x00, 0x00, 0xb0, 0x00, 0x00, 0x00, 0xa8, 0x00, 0x00, 0x00,
  0xa0, 0x00, 0x00, 0x00, 0x98, 0x00, 0x00, 0x00, 0x90, 0x00, 0x00, 0x00,
  0x88, 0x00, 0x00, 0x00, 0x68, 0x00, 0x00, 0x00, 0x04, 0x00, 0x00, 0x00,
  0x16, 0xce, 0xff, 0xff, 0x04, 0x00, 0x00, 0x00, 0x54, 0x00, 0x00, 0x00,
  0x0c, 0x00, 0x00, 0x00, 0x08, 0x00, 0x0e, 0x00, 0x08, 0x00, 0x04, 0x00,
  0x08, 0x00, 0x00, 0x00, 0x10, 0x00, 0x00, 0x00, 0x24, 0x00, 0x00, 0x00,
  0x00, 0x00, 0x06, 0x00, 0x08, 0x00, 0x04, 0x00, 0x06, 0x00, 0x00, 0x00,
  0x04, 0x00, 0x00, 0x00, 0x00, 0x00, 0x00, 0x00, 0x00, 0x00, 0x0a, 0x00,
  0x10, 0x00, 0x0c, 0x00, 0x08, 0x00, 0x04, 0x00, 0x0a, 0x00, 0x00, 0x00,
  0x02, 0x00, 0x00, 0x00, 0x02, 0x00, 0x00, 0x00, 0x04, 0x00, 0x00, 0x00,
  0x06, 0x00, 0x00, 0x00, 0x32, 0x2e, 0x31, 0x30, 0x2e, 0x30, 0x00, 0x00,
  0x76, 0xce, 0xff, 0xff, 0x04, 0x00, 0x00, 0x00, 0x10, 0x00, 0x00, 0x00,
  0x31, 0x2e, 0x35, 0x2e, 0x30, 0x00, 0x00, 0x00, 0x00, 0x00, 0x00, 0x00,
  0x00, 0x00, 0x00, 0x00, 0x74, 0xc2, 0xff, 0xff, 0x78, 0xc2, 0xff, 0xff,
  0x7c, 0xc2, 0xff, 0xff, 0x80, 0xc2, 0xff, 0xff, 0x84, 0xc2, 0xff, 0xff,
  0x88, 0xc2, 0xff, 0xff, 0x8c, 0xc2, 0xff, 0xff, 0x90, 0xc2, 0xff, 0xff,
  0x94, 0xc2, 0xff, 0xff, 0x98, 0xc2, 0xff, 0xff, 0xba, 0xce, 0xff, 0xff,
  0x04, 0x00, 0x00, 0x00, 0xc0, 0x00, 0x00, 0x00, 0x2c, 0x36, 0x36, 0x3e,
  0xb6, 0x3e, 0xe3, 0x3e, 0xa0, 0xbc, 0xbb, 0xbd, 0xf3, 0xb2, 0x81, 0x3e,
  0x54, 0x95, 0xbb, 0xbd, 0x84, 0x72, 0x71, 0x3e, 0x86, 0x3e, 0x28, 0xbe,
  0xc0, 0x9a, 0x87, 0x3d, 0x96, 0x79, 0x7c, 0x3e, 0xac, 0x54, 0xd8, 0xbe,
  0x58, 0xc8, 0xa1, 0x3e, 0xc1, 0x19, 0x9c, 0xbe, 0x5c, 0x27, 0x56, 0xbe,
  0x2e, 0xe0, 0xbf, 0x3e, 0xa9, 0xb0, 0x80, 0x3e, 0x7e, 0xb4, 0x3d, 0x3b,
  0xb2, 0x9e, 0xe4, 0xbe, 0x22, 0xa1, 0x8a, 0xbe, 0x7d, 0xd0, 0xa3, 0xbe,
  0x2a, 0x5d, 0xce, 0xbe, 0x13, 0xba, 0x89, 0x3e, 0xf1, 0x7c, 0x9b, 0xbe,
  0x40, 0xb0, 0x83, 0xbc, 0x5a, 0x2d, 0xe3, 0x3e, 0x37, 0xa4, 0x08, 0xbf,
  0xc7, 0xa5, 0xae, 0x3d, 0xe7, 0xa8, 0x83, 0xbe, 0xe9, 0x75, 0x09, 0x3f,
  0x46, 0xe3, 0x76, 0x3e, 0x42, 0xbf, 0x88, 0xbe, 0xfe, 0xe3, 0x67, 0x3d,
  0x80, 0xfa, 0x22, 0xbe, 0x06, 0x45, 0xf0, 0x3e, 0x16, 0x77, 0xc6, 0x3e,
  0xc8, 0xcd, 0x42, 0x3e, 0xbf, 0xf3, 0x08, 0xbe, 0x28, 0x01, 0x03, 0xbf,
  0x7b, 0x7b, 0x04, 0xbf, 0x2e, 0x43, 0xfc, 0xbe, 0x7a, 0x40, 0x0b, 0xbe,
  0x60, 0x43, 0x0b, 0x3f, 0xab, 0x61, 0x3e, 0xbe, 0x3c, 0xa8, 0x0a, 0xbf,
  0x00, 0x25, 0xca, 0x3e, 0x57, 0x7f, 0x01, 0xbf, 0xf6, 0x01, 0x01, 0xbe,
  0xac, 0xef, 0xf9, 0x3e, 0xfd, 0x41, 0xe7, 0x3e, 0x86, 0xcf, 0xff, 0xff,
  0x04, 0x00, 0x00, 0x00, 0x00, 0x1b, 0x00, 0x00, 0x90, 0xe7, 0xa4, 0xbc,
  0xb7, 0x8f, 0x18, 0xbd, 0xdd, 0x0c, 0x4d, 0xbe, 0xa9, 0x01, 0x48, 0xbe,
  0xaa, 0xf4, 0x98, 0x3d, 0x24, 0x1d, 0x25, 0x3d, 0x07, 0x80, 0xab, 0x3d,
  0x78, 0x70, 0xa8, 0x3d, 0x94, 0xd8, 0x74, 0xbe, 0x79, 0x63, 0x10, 0xbe,
  0x69, 0x9b, 0x96, 0x3c, 0xda, 0x7b, 0x39, 0xbe, 0x8c, 0x84, 0x76, 0xbd,
  0x35, 0x61, 0x8d, 0x3b, 0x65, 0x52, 0x56, 0x3e, 0xdb, 0x59, 0x18, 0x3e,
  0x55, 0x13, 0x0c, 0xbe, 0xa5, 0xde, 0xf8, 0x3c, 0x30, 0x3a, 0x29, 0x3e,
  0x88, 0x94, 0x18, 0x3d, 0xcb, 0xd1, 0x2c, 0xbe, 0x9f, 0x1b, 0x50, 0x3e,
  0x71, 0x1c, 0xc4, 0xbc, 0xca, 0x53, 0x05, 0xbe, 0xe7, 0xa6, 0xdf, 0xbd,
  0xcb, 0x55, 0x2b, 0x3e, 0xca, 0x82, 0xd0, 0x3d, 0x39, 0x3e, 0x08, 0x3e,
  0x90, 0xff, 0x75, 0xbd, 0xed, 0xc4, 0x15, 0xbe, 0xd0, 0xaa, 0xaf, 0xbd,
  0xcc, 0x8a, 0x49, 0xbe, 0x9d, 0xbb, 0x45, 0x3e, 0xbf, 0xdb, 0x42, 0x3e,
  0x6c, 0xe5, 0x1c, 0x3e, 0x91, 0x4d, 0xa6, 0xbd, 0x34, 0xec, 0x90, 0x3d,
  0x28, 0x88, 0x3d, 0x3e, 0x17, 0x5b, 0x32, 0xbe, 0xda, 0x1d, 0x9c, 0x3d,
  0x19, 0xf2, 0x41, 0x3e, 0xab, 0x8e, 0x5d, 0x3e, 0xbb, 0x3d, 0x59, 0xbe,
  0x8e, 0xbb, 0x12, 0xbe, 0x63, 0xd5, 0x39, 0x3e, 0xca, 0x26, 0x64, 0xbd,
  0x6a, 0x76, 0xf8, 0xbd, 0x9c, 0x07, 0x4c, 0xbe, 0x7d, 0x9c, 0xcf, 0xbd,
  0xf8, 0xff, 0xc8, 0xbd, 0x47, 0x0c, 0x43, 0x3e, 0x47, 0x92, 0x61, 0xbe,
  0x79, 0x42, 0x83, 0x3d, 0x25, 0x18, 0x24, 0xbe, 0x73, 0x43, 0x61, 0x3c,
  0xb8, 0x5c, 0x27, 0x3d, 0xf3, 0x3b, 0x71, 0x3c, 0x6d, 0x82, 0x27, 0x3e,
  0x2f, 0xe5, 0xb8, 0x3d, 0x55, 0xa5, 0x98, 0xbd, 0x48, 0xaa, 0x46, 0x3e,
  0x15, 0x77, 0x8a, 0x3c, 0x19, 0xea, 0xc8, 0x3c, 0x5d, 0x19, 0xc6, 0xbd,
  0x35, 0xb7, 0x0e, 0xbe, 0xf7, 0x1a, 0x30, 0x3d, 0x1d, 0xa7, 0x09, 0xbe,
  0x54, 0x33, 0xf5, 0x3d, 0xfe, 0xc4, 0x7d, 0xbd, 0x20, 0xb5, 0x35, 0x3e,
  0xb7, 0xfb, 0x02, 0xbe, 0x41, 0xe8, 0xbc, 0x3d, 0xa0, 0x8b, 0x13, 0x3c,
  0x40, 0xbe, 0xc4, 0x3c, 0x63, 0xdb, 0x7e, 0xbd, 0xf0, 0x11, 0xfd, 0xbd,
  0x7a, 0xb0, 0x98, 0xbd, 0x87, 0xa8, 0x5b, 0x3e, 0x85, 0x93, 0x86, 0x3d,
  0x8e, 0x48, 0xe3, 0xbd, 0xb6, 0xcf, 0x02, 0xbe, 0x0f, 0xf3, 0x0e, 0xbe,
  0x2a, 0xfe, 0xe4, 0x3d, 0x16, 0x5e, 0x38, 0x3d, 0xe4, 0x0a, 0x81, 0x3d,
  0x7d, 0x12, 0xf7, 0x3d, 0x59, 0xce, 0x74, 0x3e, 0xd1, 0x65, 0xa1, 0xbd,
  0x17, 0xbf, 0x1d, 0xbc, 0xcb, 0xcc, 0x8a, 0x3d, 0x4c, 0x97, 0xbb, 0xbd,
  0xea, 0x32, 0xfe, 0xbd, 0x71, 0x34, 0x0d, 0xbe, 0x19, 0x1a, 0x30, 0xbe,
  0x12, 0x91, 0xf7, 0xbd, 0x4e, 0xf3, 0x28, 0x3e, 0xfd, 0xda, 0xcf, 0xbd,
  0x69, 0x61, 0x06, 0x3e, 0x72, 0x70, 0xcb, 0xbd, 0xdc, 0xe5, 0xc1, 0xbc,
  0x8a, 0x66, 0x34, 0xbe, 0x9b, 0x80, 0x29, 0xbe, 0xb0, 0xcc, 0xb4, 0x3a,
  0x04, 0xf0, 0x5d, 0x3e, 0x81, 0xa5, 0x7b, 0xbe, 0x32, 0x89, 0x39, 0xbe,
  0x26, 0xa7, 0xc2, 0xbc, 0x4a, 0xc3, 0x9f, 0xbb, 0x48, 0x5c, 0xc7, 0xbc,
  0x88, 0x3e, 0x0a, 0x3d, 0x52, 0xcd, 0x04, 0x3e, 0x88, 0xe8, 0xd6, 0x3c,
  0x40, 0x01, 0x7f, 0x3b, 0x00, 0x0e, 0x56, 0x3d, 0xd2, 0x20, 0x54, 0x3e,
  0x18, 0xb9, 0x09, 0xbe, 0x78, 0xbb, 0x48, 0x3d, 0xe8, 0xc5, 0x7e, 0xbd,
  0x90, 0x46, 0x2b, 0xbc, 0x56, 0x18, 0x01, 0x3e, 0x70, 0xd4, 0x01, 0x3e,
  0x78, 0xa0, 0x47, 0xbe, 0xc0, 0xef, 0x99, 0xbb, 0x5e, 0x74, 0x4e, 0xbe,
  0x9c, 0x91, 0x13, 0x3e, 0x7a, 0x36, 0x13, 0xbe, 0x19, 0x45, 0xe2, 0xbd,
  0x56, 0xe0, 0x20, 0x3e, 0xdc, 0x45, 0xad, 0x3d, 0x80, 0xed, 0x06, 0xbb,
  0xa5, 0xcc, 0x3c, 0xbe, 0xf1, 0x56, 0x44, 0xbe, 0x80, 0xb7, 0x92, 0xbd,
  0x9f, 0x4e, 0x5e, 0xbe, 0xf8, 0x02, 0x9e, 0x3c, 0xf6, 0x20, 0x49, 0xbe,
  0xe9, 0x3d, 0x36, 0xbe, 0x23, 0xfb, 0x41, 0xbe, 0x40, 0xcd, 0x93, 0xbc,
  0xf0, 0x79, 0x8c, 0x3d, 0xf0, 0xd7, 0x2c, 0x3d, 0xbe, 0x84, 0x40, 0x3e,
  0x40, 0xaa, 0x41, 0x3d, 0x61, 0xe8, 0xc3, 0xbd, 0x67, 0x0e, 0x4c, 0xbe,
  0x70, 0x16, 0x28, 0x3d, 0xd0, 0x22, 0x39, 0x3e, 0x98, 0xb6, 0x10, 0x3e,
  0x22, 0x6a, 0x97, 0xbd, 0x9c, 0x77, 0x42, 0xbe, 0x80, 0x50, 0x41, 0x3d,
  0xa4, 0x32, 0xb9, 0x3d, 0x20, 0x48, 0x27, 0xbc, 0x04, 0x3f, 0x82, 0x3d,
  0xc0, 0x8c, 0x6f, 0xbc, 0x12, 0xd0, 0x36, 0x3e, 0x26, 0x18, 0x1d, 0x3e,
  0x36, 0x09, 0xbe, 0xbd, 0x18, 0x1f, 0x55, 0x3e, 0xc6, 0xe5, 0x1b, 0x3e,
  0xea, 0xe9, 0x9f, 0xbd, 0xa0, 0xd6, 0x93, 0xbc, 0xe6, 0xd3, 0x4a, 0x3e,
  0x15, 0x8f, 0xd1, 0xbd, 0x74, 0xbf, 0x82, 0xbd, 0x86, 0x09, 0x28, 0x3e,
  0xd1, 0xb0, 0x2d, 0xbe, 0x0c, 0x2a, 0xcf, 0x3d, 0x6e, 0xf0, 0x2d, 0x3e,
  0x28, 0xf7, 0xee, 0x3c, 0xd0, 0x45, 0x24, 0xbe, 0xd0, 0xe2, 0x55, 0x3e,
  0x60, 0x4c, 0xe0, 0x3c, 0x83, 0x12, 0x22, 0xbe, 0xe0, 0x35, 0x61, 0xbd,
  0x20, 0x04, 0x8a, 0x3b, 0xe8, 0xe3, 0x1a, 0x3d, 0xcb, 0xd9, 0x3a, 0xbe,
  0xe4, 0xb4, 0x91, 0xbd, 0x00, 0x4e, 0x15, 0x3a, 0x00, 0x95, 0x8e, 0x3d,
  0xee, 0xca, 0x43, 0xbe, 0x00, 0xa0, 0x63, 0xbc, 0x32, 0x9c, 0x60, 0x3e,
  0xf0, 0x8d, 0xd7, 0xbc, 0x0a, 0x2d, 0x3c, 0xbe, 0x0e, 0x84, 0x48, 0x3e,
  0xf0, 0x34, 0xd5, 0xbd, 0x10, 0xdb, 0x0d, 0xbd, 0x60, 0xfd, 0xad, 0xbb,
  0x71, 0xde, 0x5e, 0xbe, 0x24, 0x89, 0xbf, 0x3d, 0x4c, 0xe3, 0x2a, 0x3e,
  0x10, 0xad, 0x0f, 0xbc, 0x0c, 0x3e, 0xd4, 0xbd, 0x68, 0x5d, 0x39, 0xbe,
  0xf8, 0xfb, 0xcc, 0x3c, 0x3c, 0x0b, 0x33, 0xbd, 0x10, 0xa5, 0xac, 0x3d,
  0xb4, 0xad, 0x4c, 0x3e, 0xc0, 0x27, 0x9d, 0x3d, 0xa8, 0xce, 0x85, 0x3d,
  0x6c, 0x1e, 0xef, 0x3d, 0x4c, 0xf3, 0x4a, 0x3e, 0xc8, 0x18, 0xdb, 0xbc,
  0xbc, 0xc3, 0xf3, 0x3d, 0x2c, 0x3a, 0x25, 0x3e, 0xfc, 0xb7, 0x5b, 0xbd,
  0x05, 0x4d, 0x21, 0xbe, 0xfe, 0x33, 0x35, 0x3e, 0x96, 0x9f, 0x20, 0x3e,
  0x6e, 0x51, 0x4b, 0x3e, 0x8a, 0xa7, 0x5d, 0x3e, 0x0e, 0x94, 0x18, 0xbe,
  0xff, 0xb8, 0x00, 0xbe, 0x5d, 0x21, 0x29, 0xbe, 0x2e, 0x0b, 0x0d, 0xbe,
  0x6e, 0x99, 0xd3, 0xbd, 0x20, 0xd6, 0xc2, 0x3d, 0x50, 0xed, 0x65, 0x3c,
  0xd8, 0x02, 0x09, 0x3e, 0x9f, 0x28, 0xf6, 0xbd, 0xc8, 0xa6, 0x49, 0x3d,
  0x50, 0x32, 0xa1, 0x3d, 0x17, 0x59, 0x36, 0xbe, 0x06, 0xc1, 0x38, 0xbe,
  0x68, 0x79, 0x20, 0xbe, 0x6c, 0xe0, 0xaf, 0xbd, 0x60, 0x11, 0x4e, 0xbc,
  0x89, 0xc9, 0xc5, 0xbd, 0x1c, 0x80, 0x1e, 0xbe, 0x24, 0xfa, 0x19, 0xbd,
  0xb0, 0xf5, 0xb1, 0xbd, 0xb0, 0xfa, 0x1f, 0x3d, 0xa8, 0x78, 0x72, 0x3d,
  0x62, 0xbf, 0xa5, 0xbd, 0x1c, 0x71, 0x80, 0xbd, 0x60, 0x68, 0x17, 0xbd,
  0xd4, 0x48, 0x1a, 0xbd, 0xaa, 0x0c, 0x13, 0x3e, 0x40, 0xfb, 0x18, 0x3e,
  0x24, 0x7f, 0x9a, 0x3d, 0x22, 0x70, 0x16, 0x3e, 0x82, 0xa3, 0x24, 0xbe,
  0xc0, 0x0c, 0x99, 0x3c, 0x6c, 0x5c, 0x55, 0xbe, 0xfb, 0x05, 0x5c, 0xbe,
  0x38, 0xd5, 0xc0, 0x3d, 0xca, 0x88, 0x11, 0xbe, 0x48, 0x40, 0xbc, 0xbc,
  0x04, 0x5b, 0x19, 0x3e, 0x78, 0x8a, 0x92, 0xbc, 0x00, 0x15, 0xe1, 0xbc,
  0x5f, 0xae, 0xf2, 0xbd, 0x88, 0x19, 0x2d, 0x3e, 0x08, 0x92, 0x32, 0xbd,
  0xe4, 0x83, 0x9e, 0x3d, 0xac, 0x2f, 0x72, 0xbd, 0x7c, 0xdf, 0xd9, 0x3d,
  0x98, 0x26, 0x23, 0x3d, 0xcf, 0x1e, 0x53, 0xbe, 0x6a, 0x33, 0x20, 0x3e,
  0xe7, 0x70, 0x51, 0xbe, 0x7c, 0x71, 0x2e, 0xbe, 0x76, 0x6a, 0x0b, 0xbe,
  0xb4, 0x34, 0xa3, 0x3d, 0x00, 0x9f, 0x2c, 0xba, 0x60, 0x5b, 0x5f, 0xbc,
  0xfa, 0x02, 0x07, 0x3e, 0xc0, 0xc5, 0x58, 0x3d, 0xfe, 0xb8, 0x02, 0x3e,
  0x00, 0xc6, 0x67, 0x3c, 0x19, 0xf9, 0xe4, 0xbd, 0x28, 0x63, 0x2d, 0x3d,
  0x5e, 0x00, 0x3b, 0xbe, 0xfe, 0x63, 0xc8, 0xbd, 0xce, 0x31, 0x5e, 0xbe,
  0xc8, 0x95, 0xa5, 0xbd, 0xf4, 0x75, 0x2f, 0x3e, 0x40, 0x4f, 0xa8, 0xbd,
  0x2a, 0xeb, 0x2d, 0x3e, 0x10, 0x78, 0x94, 0x3c, 0xe0, 0x60, 0x5a, 0x3d,
  0x2b, 0xfa, 0xcf, 0xbd, 0xaa, 0x72, 0x57, 0x3e, 0xc4, 0x0c, 0xa8, 0x3d,
  0x26, 0x4c, 0x5c, 0xbe, 0x77, 0x6d, 0x45, 0xbe, 0x88, 0x6a, 0xba, 0xbd,
  0x1c, 0xac, 0x3b, 0x3e, 0x8a, 0x16, 0x22, 0x3e, 0x90, 0x75, 0x42, 0x3e,
  0xa4, 0xed, 0x16, 0xbe, 0xdb, 0x3f, 0xc9, 0xbd, 0xf8, 0x89, 0x23, 0xbd,
  0x1b, 0x60, 0xd2, 0xbd, 0xa0, 0x07, 0x31, 0x3d, 0xd8, 0xf6, 0x0d, 0xbd,
  0x3c, 0xd9, 0xa8, 0x3d, 0x98, 0x16, 0x85, 0x3c, 0x2f, 0x55, 0xee, 0xbd,
  0xe8, 0xe2, 0x5b, 0x3e, 0xa1, 0x62, 0x53, 0xbe, 0xf4, 0xf4, 0xaa, 0x3d,
  0x80, 0xca, 0x40, 0xbb, 0x2d, 0x13, 0x5f, 0xbe, 0x00, 0x49, 0xbe, 0x3d,
  0x60, 0x71, 0x37, 0x3d, 0x70, 0x5a, 0xb8, 0x3d, 0xfb, 0x7f, 0x4d, 0xbe,
  0x6c, 0xc9, 0x35, 0xbe, 0x52, 0xf9, 0x53, 0xbe, 0x0e, 0x16, 0x1c, 0x3e,
  0x12, 0xa8, 0x20, 0xbe, 0x57, 0xce, 0x3d, 0xbe, 0x80, 0x98, 0xae, 0xbc,
  0xe4, 0x3f, 0x04, 0xbe, 0x90, 0xa0, 0x07, 0xbd, 0x00, 0x58, 0x8c, 0x38,
  0xe2, 0xc9, 0x19, 0x3e, 0xd0, 0x17, 0xc8, 0x3c, 0xac, 0x49, 0x90, 0x3d,
  0x36, 0x5c, 0x04, 0x3e, 0x0c, 0xa7, 0xab, 0xbd, 0xc4, 0x56, 0xb6, 0x3d,
  0x1a, 0xca, 0x3d, 0xbe, 0x55, 0x63, 0x13, 0x3e, 0x10, 0x08, 0x30, 0x3e,
  0x5d, 0x8e, 0xac, 0xbd, 0xe0, 0x2a, 0x1c, 0x3e, 0xad, 0x16, 0xd6, 0x3c,
  0x74, 0xdd, 0x88, 0x3d, 0x6c, 0xbf, 0x1a, 0x3d, 0xe5, 0xd3, 0x4f, 0x3c,
  0x6c, 0x6c, 0x9a, 0xbc, 0xe5, 0x23, 0xdc, 0xbd, 0x3f, 0xc5, 0x30, 0xbe,
  0xce, 0x41, 0x06, 0x3e, 0x1a, 0x87, 0x15, 0x3d, 0x9d, 0xc1, 0xc3, 0xbc,
  0xa4, 0x54, 0x59, 0x3e, 0x79, 0x25, 0xf9, 0x3b, 0xb3, 0x04, 0xa4, 0x3d,
  0x40, 0x44, 0x7b, 0x3c, 0x43, 0x7d, 0x32, 0xbe, 0xef, 0xd6, 0xda, 0x3c,
  0x36, 0x7d, 0x4a, 0x3e, 0x99, 0x32, 0x7e, 0x3c, 0xcc, 0x4a, 0xc9, 0xbd,
  0x6d, 0xbb, 0x65, 0x3d, 0xb9, 0xa6, 0x0b, 0xbe, 0xa0, 0x2f, 0xf4, 0xbd,
  0xf9, 0x18, 0x47, 0x3e, 0xaa, 0x41, 0xef, 0x3c, 0x76, 0x7a, 0x15, 0xbe,
  0x40, 0x92, 0xe2, 0x3d, 0x20, 0xca, 0x46, 0xbd, 0xe7, 0x9c, 0x60, 0xbe,
  0x07, 0x7d, 0x12, 0xbe, 0xa1, 0x0d, 0x76, 0xbd, 0x9c, 0x01, 0x5c, 0x3e,
  0x3e, 0x77, 0xb0, 0xbd, 0x52, 0xee, 0x2a, 0xbe, 0x4f, 0x65, 0xee, 0x3d,
  0x2e, 0xec, 0x51, 0x3e, 0xde, 0xbe, 0x4f, 0xbd, 0x4b, 0xbe, 0x6b, 0xbd,
  0xf8, 0x9c, 0x8e, 0xbd, 0x73, 0x76, 0xd6, 0xbd, 0xe5, 0xdb, 0xcd, 0x3d,
  0x2f, 0x5f, 0xf8, 0xbd, 0x63, 0x4d, 0x62, 0xbd, 0x60, 0xb6, 0x8e, 0x3d,
  0x11, 0xc2, 0xdf, 0x3d, 0x7a, 0xd8, 0x26, 0x3e, 0x78, 0xa0, 0x47, 0xbe,
  0xbd, 0x34, 0x26, 0x3d, 0xc6, 0x61, 0x23, 0xbd, 0x5a, 0xf5, 0x9f, 0xbd,
  0x6f, 0x4f, 0x47, 0xbe, 0x4a, 0xf8, 0xfc, 0x3d, 0xdd, 0x6d, 0x29, 0x3e,
  0x45, 0x08, 0x17, 0xbe, 0x4b, 0xd1, 0x20, 0xbe, 0x80, 0xb5, 0xcd, 0xbd,
  0xbb, 0x9a, 0x7f, 0xbd, 0x58, 0x3b, 0x8c, 0xbd, 0x01, 0xe6, 0xc8, 0x3d,
  0x99, 0xd7, 0xca, 0x3d, 0x87, 0x8e, 0x74, 0x3d, 0x0a, 0x9a, 0x41, 0xbe,
  0xb2, 0xf2, 0x3c, 0x3e, 0x9d, 0x76, 0xcd, 0x3d, 0xae, 0xf9, 0x53, 0x3d,
  0x56, 0x6f, 0x0a, 0x3e, 0x68, 0xb3, 0x34, 0x3e, 0x25, 0xf6, 0x50, 0xbe,
  0x5e, 0xaa, 0x1a, 0xbe, 0x7a, 0x5e, 0x09, 0xbe, 0xe2, 0x2e, 0x05, 0x3e,
  0x1b, 0x27, 0x03, 0xbd, 0x87, 0x46, 0x46, 0x3e, 0xff, 0xdc, 0x57, 0x3e,
  0x74, 0x1a, 0x87, 0xbd, 0x7c, 0x5b, 0x1d, 0x3e, 0xe3, 0x1d, 0xd0, 0x3b,
  0x3e, 0xe3, 0x50, 0x3d, 0xb8, 0x53, 0x0a, 0xbe, 0xbe, 0x13, 0x00, 0x3e,
  0xab, 0xbb, 0x44, 0xbe, 0x36, 0x22, 0xaf, 0xbd, 0xe4, 0x64, 0xe2, 0x3d,
  0xe0, 0x75, 0x32, 0x3e, 0xda, 0x52, 0x57, 0xbe, 0xd1, 0xff, 0x6f, 0xbe,
  0xd0, 0xe2, 0xad, 0x3d, 0x04, 0x31, 0x34, 0x3e, 0xf5, 0x4f, 0x59, 0x3d,
  0xd9, 0xf9, 0x58, 0xbd, 0xbc, 0x71, 0xd7, 0xbd, 0x40, 0x6f, 0xbe, 0xbb,
  0x44, 0xa6, 0xb2, 0x3c, 0xc6, 0x2e, 0x07, 0xbe, 0x54, 0x49, 0x08, 0x3e,
  0xc7, 0x99, 0x48, 0x3e, 0x1a, 0x5e, 0x01, 0x3e, 0x9c, 0x1c, 0x2c, 0xbe,
  0x5a, 0xb1, 0xd3, 0xbd, 0xe2, 0x0f, 0xd9, 0x3d, 0x3f, 0x43, 0xee, 0xbd,
  0xf5, 0x35, 0x0a, 0x3d, 0x52, 0x0f, 0x49, 0xbe, 0x0c, 0x2e, 0xb5, 0x3d,
  0x19, 0xc7, 0x38, 0xbe, 0x2f, 0xf6, 0x18, 0xbe, 0xad, 0x77, 0xdc, 0x3c,
  0xc5, 0xed, 0xad, 0xbd, 0x4f, 0x92, 0x53, 0xbe, 0x0d, 0xaf, 0xd7, 0xbd,
  0xa2, 0x2b, 0x5b, 0x3e, 0x22, 0xae, 0x68, 0x3e, 0x9e, 0xa0, 0x1c, 0xbe,
  0x0e, 0xbb, 0xe9, 0xbd, 0xe9, 0x7f, 0x5d, 0xbe, 0xc0, 0x96, 0x2a, 0xbe,
  0x60, 0x97, 0xba, 0x3d, 0xac, 0xdb, 0x2e, 0x3d, 0x32, 0x0e, 0xbe, 0x3d,
  0x48, 0xc7, 0x12, 0xbe, 0x23, 0x63, 0x4e, 0x3e, 0xf9, 0x3c, 0xb0, 0x3d,
  0x53, 0xd6, 0x5a, 0xbe, 0x41, 0xb8, 0xa4, 0x3d, 0x73, 0xad, 0x67, 0xbd,
  0xde, 0x2f, 0x3a, 0x3e, 0xba, 0x8d, 0xa0, 0x3b, 0x20, 0x34, 0x41, 0x3d,
  0x01, 0xfe, 0x57, 0x3e, 0x54, 0x65, 0x59, 0xbe, 0x1b, 0x17, 0x4c, 0xbe,
  0x9b, 0x23, 0x2e, 0xbc, 0x86, 0x12, 0xa1, 0xbd, 0x7c, 0x5c, 0xad, 0xbd,
  0x7b, 0x23, 0xff, 0xbd, 0xee, 0x39, 0x32, 0x3e, 0xa5, 0x99, 0x2d, 0xbe,
  0x0d, 0xd1, 0xb1, 0xbd, 0x33, 0x26, 0x46, 0xbe, 0x78, 0x8f, 0x24, 0xbd,
  0xd3, 0x99, 0xb2, 0xbd, 0x01, 0xc6, 0x9c, 0x3d, 0x32, 0x57, 0x9c, 0x3d,
  0x90, 0x33, 0x94, 0x3d, 0x11, 0xba, 0x7a, 0xbd, 0x24, 0xaa, 0xfa, 0xbd,
  0xd8, 0xbc, 0xbe, 0x3d, 0x0e, 0x31, 0x35, 0x3e, 0x29, 0x8f, 0x8c, 0x3c,
  0x44, 0x6a, 0x4a, 0x3e, 0x6d, 0xf7, 0x3f, 0x3d, 0x3a, 0x63, 0x31, 0x3e,
  0x0c, 0xbb, 0x3d, 0xbe, 0xbc, 0xe9, 0x03, 0xbe, 0xd2, 0x98, 0xa3, 0x3d,
  0x2e, 0x0e, 0x23, 0x3d, 0x81, 0xbb, 0x12, 0xbb, 0xfc, 0x32, 0x3b, 0xbd,
  0x96, 0x0b, 0x80, 0xbd, 0xf2, 0x90, 0x8d, 0x3a, 0x60, 0xdc, 0xdc, 0xbd,
  0xae, 0x24, 0xda, 0x3c, 0x58, 0x75, 0x3f, 0x3d, 0x94, 0xa7, 0x60, 0xbe,
  0x26, 0x1f, 0x25, 0x3e, 0x94, 0x5a, 0xde, 0xbd, 0xa0, 0xf2, 0xde, 0xbd,
  0xce, 0x7e, 0xdc, 0xbd, 0xf5, 0x1c, 0x80, 0xbd, 0xd2, 0xc7, 0x19, 0xbe,
  0x10, 0x61, 0x30, 0x3e, 0x01, 0xeb, 0x6e, 0xbd, 0xe7, 0x56, 0x3a, 0x3e,
  0x36, 0xfc, 0xd7, 0xbd, 0x81, 0xd6, 0x13, 0x3e, 0xd6, 0x28, 0x87, 0xbd,
  0x8a, 0x8f, 0xf5, 0x3d, 0xc9, 0x7f, 0x4a, 0x3d, 0x32, 0x0c, 0xc5, 0x3d,
  0xb7, 0x66, 0x22, 0x3e, 0x3e, 0x6c, 0x51, 0x3e, 0x7d, 0xd6, 0xeb, 0x3d,
  0x84, 0xfd, 0xa5, 0x3d, 0xb5, 0x1c, 0x79, 0x3e, 0xad, 0x16, 0x19, 0x3d,
  0x48, 0x06, 0x45, 0xbd, 0x9a, 0x16, 0xc8, 0x3d, 0xda, 0x63, 0x9e, 0xbd,
  0xcd, 0x43, 0x51, 0x3e, 0x00, 0x7d, 0x12, 0x3e, 0x3b, 0xb5, 0xaa, 0x3c,
  0x71, 0x98, 0x3a, 0xbe, 0x66, 0x8d, 0xd9, 0xbd, 0xa6, 0x8d, 0x2e, 0xbd,
  0x0c, 0xb4, 0xa9, 0x3d, 0xb5, 0x56, 0x52, 0x3e, 0x3c, 0x05, 0xce, 0xbc,
  0x35, 0x6a, 0xea, 0x3c, 0x4e, 0x00, 0x16, 0x3e, 0xc8, 0x1f, 0x08, 0xbe,
  0x7b, 0x26, 0x09, 0x3e, 0x39, 0x7c, 0x61, 0xbc, 0xf6, 0xcb, 0x0e, 0x3e,
  0xcf, 0x9f, 0x50, 0x3e, 0x2e, 0x85, 0xee, 0x3d, 0x50, 0xd1, 0xff, 0xbd,
  0x58, 0xfa, 0xf0, 0x3c, 0x2c, 0xc8, 0x1c, 0xbc, 0x2c, 0xb9, 0x69, 0x3b,
  0xe9, 0x42, 0x03, 0x3e, 0x7c, 0x92, 0x58, 0xbe, 0xf1, 0x1e, 0x3a, 0xbe,
  0x8a, 0x96, 0x45, 0xbe, 0x3f, 0xae, 0x28, 0x3e, 0x22, 0x02, 0x04, 0x3e,
  0x89, 0x0f, 0x60, 0x3d, 0x97, 0x27, 0x66, 0x3d, 0x30, 0x96, 0xdb, 0xbd,
  0x09, 0x50, 0x34, 0xbe, 0xcc, 0x6e, 0x2b, 0xbe, 0x94, 0xae, 0xad, 0xbd,
  0x11, 0x68, 0x1b, 0x3d, 0x51, 0x14, 0x85, 0xbd, 0xbc, 0xaa, 0xa5, 0x3d,
  0x88, 0x79, 0xf5, 0xbc, 0xd4, 0xbe, 0x23, 0x3d, 0x4d, 0xb3, 0x4a, 0x3e,
  0xab, 0xe0, 0x78, 0xbd, 0x65, 0x20, 0x1d, 0xbe, 0xa5, 0x30, 0x0e, 0xbe,
  0x7c, 0xb0, 0xa1, 0x3d, 0x67, 0xd3, 0xc7, 0xbd, 0x32, 0xcb, 0x76, 0xbd,
  0x71, 0x30, 0xaa, 0x3d, 0x8e, 0x7d, 0x3a, 0xbe, 0x98, 0xb4, 0x8a, 0x3d,
  0x69, 0xe3, 0x29, 0x3c, 0x53, 0xcd, 0x28, 0x3e, 0x75, 0xa6, 0xb6, 0x3d,
  0xfb, 0xc9, 0xda, 0xbd, 0xd6, 0x67, 0x47, 0x3e, 0x05, 0xa7, 0x48, 0x3e,
  0x02, 0x5e, 0x91, 0xbd, 0x1f, 0xcd, 0x2e, 0x3e, 0xb4, 0x0e, 0x63, 0x3e,
  0x34, 0x7f, 0x31, 0x3e, 0x2e, 0x59, 0x2b, 0x3d, 0x4e, 0x78, 0x08, 0xbe,
  0x09, 0x2b, 0x72, 0x3d, 0x2f, 0xb4, 0x41, 0xbc, 0xb2, 0x19, 0x98, 0x3d,
  0x8a, 0x8b, 0xb3, 0xbd, 0x6d, 0x13, 0xda, 0xbc, 0x05, 0x0b, 0xb6, 0xbb,
  0xe1, 0x28, 0x28, 0xbe, 0xfd, 0x76, 0x0b, 0x3e, 0xc2, 0x55, 0xc2, 0x3d,
  0x21, 0x2a, 0x24, 0xbd, 0xd7, 0x10, 0x37, 0x3e, 0xa0, 0xd6, 0x09, 0xbc,
  0xf6, 0x5c, 0x89, 0xbd, 0x12, 0x47, 0x36, 0x3d, 0xd4, 0xbb, 0xd0, 0x3d,
  0x84, 0x2f, 0x31, 0xbe, 0xac, 0xcf, 0x76, 0xbc, 0x96, 0x62, 0x52, 0xbe,
  0x77, 0xd5, 0x2f, 0xbe, 0x83, 0x6b, 0x2b, 0x3e, 0x78, 0xdc, 0x33, 0x3e,
  0x72, 0x0e, 0x5a, 0xbc, 0x80, 0xe7, 0x00, 0x3e, 0xf9, 0x64, 0xcf, 0xbd,
  0xea, 0x4a, 0xe7, 0x3d, 0x48, 0xe8, 0x64, 0xbd, 0x46, 0x7f, 0x49, 0xba,
  0x30, 0x75, 0xcd, 0x3d, 0xde, 0xca, 0x52, 0x3e, 0x07, 0xcf, 0x05, 0x3d,
  0x61, 0xc5, 0xe7, 0xbd, 0x9f, 0x6e, 0xad, 0xbd, 0xd8, 0x0d, 0x86, 0x3d,
  0x79, 0x07, 0x1a, 0xbe, 0x25, 0xbe, 0x01, 0x3d, 0x08, 0x56, 0x68, 0xbd,
  0x26, 0x05, 0x33, 0x3e, 0x61, 0x65, 0x9c, 0xbd, 0x8a, 0xe7, 0x65, 0xbe,
  0xcf, 0x8d, 0x55, 0xbe, 0xa7, 0xf4, 0xf8, 0x3d, 0xcc, 0xde, 0x8e, 0xbc,
  0xa5, 0x2d, 0xeb, 0xbd, 0x21, 0x37, 0x58, 0xbd, 0xc5, 0x4f, 0xff, 0x3c,
  0x1d, 0x00, 0x94, 0xbd, 0x63, 0x57, 0xc2, 0xbd, 0x54, 0xf6, 0x4b, 0x3e,
  0xae, 0xcf, 0x0b, 0xbe, 0x64, 0x52, 0xc8, 0xbd, 0x9c, 0x2a, 0x36, 0x3d,
  0xda, 0xd8, 0x82, 0xbb, 0x98, 0x14, 0xa1, 0x3d, 0xa0, 0xce, 0x28, 0xbe,
  0x30, 0x2f, 0x21, 0x3e, 0x7c, 0x9a, 0x98, 0x3d, 0xfb, 0xd6, 0x29, 0x3e,
  0x46, 0x6b, 0x80, 0xbd, 0x49, 0x0f, 0xa9, 0x3c, 0x40, 0xe5, 0x3b, 0x3d,
  0x08, 0xb8, 0xcd, 0x3d, 0x9e, 0x75, 0x2f, 0x3e, 0x0b, 0x0e, 0xdc, 0x3d,
  0xf2, 0x9b, 0xe7, 0x3d, 0xc7, 0x39, 0xee, 0x3d, 0x26, 0xcc, 0xf0, 0xbc,
  0xdc, 0xc5, 0xfe, 0x3d, 0x2c, 0xda, 0x39, 0xbe, 0xeb, 0x01, 0x72, 0xbd,
  0x9e, 0x64, 0x4d, 0xbe, 0xc7, 0xc1, 0x26, 0x3e, 0xc0, 0x2d, 0x7a, 0x3b,
  0xf0, 0x78, 0x0f, 0xbc, 0x66, 0x57, 0x36, 0x3e, 0x68, 0xe3, 0x06, 0xbe,
  0x18, 0x5d, 0xcd, 0xbc, 0x3d, 0x08, 0x54, 0xbe, 0x23, 0x14, 0xf6, 0xbd,
  0xc6, 0xa7, 0x0d, 0x3e, 0x84, 0x53, 0x49, 0xbd, 0x7a, 0x8c, 0x1d, 0xbe,
  0x5d, 0x9f, 0x3d, 0xbe, 0x46, 0xe0, 0x47, 0xbe, 0xfe, 0x54, 0x4a, 0x3e,
  0x38, 0xb3, 0x3e, 0xbe, 0xe8, 0xf5, 0x16, 0x3e, 0xd4, 0x4c, 0x7d, 0xbd,
  0x6e, 0x2d, 0x02, 0x3e, 0x5b, 0xe8, 0x3e, 0xbe, 0x70, 0x8e, 0x01, 0x3e,
  0x38, 0xf4, 0x17, 0x3e, 0xb0, 0xe3, 0x01, 0x3d, 0x4d, 0xad, 0x5d, 0xbe,
  0xac, 0x66, 0x53, 0x3e, 0x85, 0xde, 0x22, 0xbe, 0x44, 0x5b, 0xc0, 0x3d,
  0x1c, 0xc5, 0xe0, 0x3d, 0x46, 0x2e, 0x5b, 0x3e, 0x3e, 0x3a, 0x16, 0x3e,
  0x05, 0x06, 0xdf, 0xbd, 0x4c, 0x14, 0x3c, 0xbe, 0x00, 0xf4, 0x5e, 0xba,
  0x15, 0x23, 0xc7, 0xbd, 0x88, 0x27, 0x4b, 0x3e, 0x60, 0x36, 0x30, 0xbd,
  0xe2, 0xc2, 0x03, 0xbe, 0xe8, 0xc1, 0xaf, 0x3d, 0x90, 0x8e, 0x14, 0x3d,
  0x88, 0xa6, 0xe9, 0xbc, 0xf2, 0xe0, 0xbe, 0xbd, 0xfb, 0x96, 0xca, 0xbd,
  0x90, 0x8e, 0x2c, 0x3e, 0x30, 0x78, 0x25, 0xbc, 0x1f, 0x34, 0x57, 0xbe,
  0xb0, 0x96, 0x62, 0xbc, 0xb9, 0xdb, 0xdf, 0xbd, 0x3a, 0xb5, 0x1a, 0x3e,
  0xf8, 0x3e, 0x22, 0x3d, 0x5c, 0xec, 0xf7, 0xbd, 0xce, 0x2d, 0x5b, 0x3e,
  0xd0, 0x82, 0x42, 0x3e, 0x6a, 0xf6, 0x33, 0x3e, 0x38, 0xd9, 0x12, 0x3e,
  0x34, 0xe5, 0x36, 0xbd, 0x0d, 0x71, 0x59, 0xbe, 0xcc, 0x38, 0x48, 0x3e,
  0xe5, 0x73, 0xcd, 0xbd, 0xa0, 0x07, 0x37, 0xbd, 0x08, 0x42, 0x4a, 0xbe,
  0xea, 0x53, 0x35, 0xbe, 0xdc, 0x41, 0x60, 0x3e, 0xc8, 0xad, 0xd3, 0xbc,
  0xfc, 0xec, 0xc5, 0x3d, 0x9a, 0xfd, 0x07, 0x3e, 0xb2, 0xc3, 0x2e, 0x3e,
  0x80, 0xe5, 0xbf, 0xbd, 0xa4, 0x58, 0xe8, 0x3d, 0xc8, 0x91, 0x55, 0xbe,
  0xe0, 0x64, 0xaa, 0x3d, 0x48, 0x01, 0x8c, 0xbd, 0xf0, 0x93, 0xf9, 0xbd,
  0x80, 0x1f, 0x3c, 0xbe, 0xcf, 0x7c, 0x21, 0xbe, 0x48, 0xc2, 0xb7, 0xbc,
  0x9a, 0x6a, 0x2f, 0x3e, 0x78, 0x4f, 0x1c, 0xbe, 0x58, 0x92, 0x07, 0x3e,
  0x18, 0xae, 0x24, 0xbd, 0xc4, 0x84, 0x4b, 0xbd, 0xe0, 0x91, 0x8d, 0xbd,
  0xf8, 0xff, 0x37, 0x3e, 0xd6, 0x64, 0x0b, 0x3e, 0xe0, 0xe3, 0x8c, 0x3d,
  0x5e, 0x7a, 0x99, 0xbd, 0xf8, 0x2a, 0xcb, 0x3d, 0x00, 0x86, 0x1a, 0xbc,
  0x28, 0xfb, 0xa8, 0x3d, 0x10, 0x0c, 0xbc, 0x3d, 0x68, 0xa9, 0xfa, 0xbc,
  0x18, 0x84, 0x0b, 0x3d, 0x30, 0x89, 0x20, 0xbe, 0xb0, 0x8a, 0xb4, 0xbc,
  0xb2, 0x8e, 0x33, 0xbe, 0xa0, 0x86, 0x1e, 0xbc, 0x88, 0x8b, 0x7c, 0xbd,
  0xd0, 0x88, 0xcb, 0xbd, 0x70, 0x2a, 0xc6, 0x3d, 0x46, 0x0a, 0x8f, 0xbd,
  0x90, 0xd0, 0xa8, 0xbd, 0xab, 0x0d, 0x4b, 0xbe, 0xea, 0x25, 0x85, 0xbd,
  0x1c, 0xbe, 0xee, 0xbd, 0xc0, 0x0d, 0x2e, 0x3d, 0xb4, 0x4c, 0x03, 0xbe,
  0x80, 0xd1, 0xed, 0x3c, 0x44, 0x96, 0xbe, 0x3d, 0x5c, 0x5a, 0x31, 0xbe,
  0xcf, 0x01, 0x43, 0xbe, 0x68, 0x51, 0xcc, 0xbc, 0x9a, 0x90, 0x09, 0xbe,
  0xbc, 0x53, 0x04, 0x3e, 0x5e, 0xf4, 0xc9, 0xbd, 0xc0, 0x73, 0xf8, 0xbc,
  0xfc, 0xac, 0xd2, 0x3d, 0x0e, 0xf2, 0x2e, 0x3e, 0x50, 0x35, 0x50, 0xbe,
  0x76, 0x98, 0x05, 0xbe, 0xa8, 0x24, 0x13, 0xbe, 0xc8, 0xfd, 0x4e, 0xbd,
  0xa4, 0xa2, 0x27, 0xbe, 0xac, 0xfd, 0xbf, 0xbd, 0x18, 0x08, 0xd1, 0x3d,
  0x00, 0x5e, 0xf2, 0xba, 0x80, 0xcf, 0xf6, 0xbc, 0x92, 0x87, 0x4b, 0x3e,
  0x78, 0xad, 0x28, 0xbe, 0x7b, 0x97, 0x42, 0xbe, 0xf8, 0x67, 0x49, 0x3e,
  0xd0, 0xf1, 0x57, 0xbd, 0x9e, 0x7f, 0x54, 0x3e, 0x40, 0xfb, 0xb0, 0xbd,
  0xa3, 0xb7, 0xf2, 0xbd, 0x38, 0x4a, 0xe8, 0x3d, 0x08, 0x59, 0xfa, 0x3d,
  0xac, 0xfd, 0x5a, 0xbd, 0x42, 0x2c, 0x51, 0xbe, 0x78, 0x3b, 0xe3, 0x3d,
  0x0e, 0xb2, 0xd7, 0xbd, 0xec, 0x97, 0x81, 0x3d, 0x90, 0x6c, 0x0a, 0x3d,
  0x3c, 0xd8, 0x4d, 0xbd, 0xe0, 0x84, 0xb0, 0x3d, 0x2c, 0x2f, 0x24, 0x3e,
  0x54, 0x79, 0x3f, 0xbe, 0xc8, 0x7b, 0xad, 0x3d, 0x20, 0xcb, 0x55, 0x3e,
  0x46, 0x05, 0xc1, 0xbd, 0x4e, 0x79, 0x57, 0x3e, 0x10, 0xb8, 0x1b, 0xbe,
  0x1c, 0x99, 0x1b, 0xbd, 0x48, 0xc1, 0x36, 0xbd, 0x30, 0xdf, 0x1c, 0xbc,
  0x74, 0xf0, 0x24, 0x3e, 0xb8, 0x80, 0x4a, 0x3d, 0x80, 0x54, 0x05, 0x3b,
  0x21, 0x3a, 0x4b, 0xbe, 0xf0, 0xdd, 0x53, 0x3c, 0x00, 0xd4, 0xae, 0xbd,
  0x16, 0x33, 0xf1, 0xbd, 0x2c, 0x95, 0xa6, 0x3d, 0x84, 0x3f, 0xeb, 0xbd,
  0x80, 0xe8, 0xd3, 0x3a, 0xe8, 0x38, 0x2b, 0x3d, 0x01, 0x0f, 0xf8, 0xbd,
  0x79, 0x6c, 0xca, 0xbd, 0xc0, 0xe0, 0x0f, 0xbc, 0xbc, 0x14, 0x33, 0xbe,
  0xbc, 0x9f, 0x0e, 0xbe, 0xc8, 0x6a, 0x27, 0x3e, 0xaa, 0xaa, 0x31, 0xbe,
  0x50, 0x9e, 0x7f, 0x3d, 0x54, 0xbf, 0x4c, 0xbe, 0x02, 0xf7, 0x0a, 0x3e,
  0x60, 0x04, 0x4a, 0x3d, 0xe4, 0x7b, 0x49, 0xbe, 0x16, 0xa8, 0x45, 0xbe,
  0xb2, 0x7d, 0x3b, 0x3e, 0x00, 0x4a, 0x87, 0xba, 0x0e, 0xda, 0x2e, 0xbe,
  0x3c, 0x81, 0x11, 0xbd, 0x58, 0x0e, 0x36, 0xbd, 0x72, 0x42, 0x39, 0xbe,
  0x22, 0x9c, 0xed, 0xbd, 0x72, 0x1d, 0x41, 0x3e, 0x50, 0x26, 0x61, 0xbd,
  0x0c, 0xe1, 0x1b, 0xbe, 0xde, 0x06, 0x3d, 0x3e, 0x7a, 0xa1, 0x37, 0xbe,
  0xa4, 0x52, 0x47, 0x3e, 0xbc, 0xdb, 0x6d, 0xbd, 0x2c, 0xa5, 0x8b, 0x3d,
  0x78, 0xd3, 0x52, 0x3d, 0xe0, 0x61, 0x5b, 0xbd, 0xd9, 0x91, 0xde, 0xbd,
  0x0e, 0xd6, 0x5f, 0x3e, 0xe9, 0x50, 0x5a, 0xbe, 0xa4, 0xe1, 0xc4, 0x3d,
  0x82, 0x89, 0xf7, 0xbd, 0x1a, 0x36, 0x1b, 0x3e, 0xc0, 0x90, 0x4f, 0x3c,
  0x94, 0xff, 0xe5, 0x3d, 0xd8, 0x9e, 0xcf, 0x3c, 0x40, 0x01, 0x21, 0x3e,
  0x42, 0xda, 0x28, 0xbe, 0x9e, 0xc1, 0x2a, 0xbe, 0x30, 0x98, 0x0d, 0x3e,
  0x48, 0x15, 0xf4, 0x3d, 0xe0, 0x46, 0xe3, 0x3d, 0x62, 0xbe, 0x41, 0xbe,
  0x60, 0xc5, 0xbf, 0xbc, 0x94, 0xd4, 0xa0, 0x3d, 0x64, 0x52, 0xb3, 0x3d,
  0xaa, 0x74, 0x29, 0xbe, 0x00, 0x91, 0xdd, 0x3d, 0xae, 0x05, 0xa4, 0xbd,
  0x74, 0xda, 0x38, 0x3e, 0x4b, 0xd2, 0xf1, 0xbd, 0xf0, 0x37, 0x83, 0xbc,
  0xaf, 0xa6, 0xbe, 0xbc, 0x68, 0x94, 0x26, 0xbe, 0xc2, 0x32, 0xbd, 0x3d,
  0xf9, 0x42, 0x21, 0xbd, 0xe8, 0x7b, 0x1b, 0x3e, 0xad, 0xa5, 0x56, 0x3d,
  0x82, 0x1d, 0x30, 0xbe, 0xbd, 0x62, 0xdc, 0xbd, 0x47, 0xcf, 0x5c, 0x3d,
  0x30, 0x7e, 0x40, 0x3e, 0x38, 0x9a, 0x99, 0x3d, 0x18, 0x96, 0x63, 0xbd,
  0x1a, 0xd1, 0x64, 0x3b, 0x22, 0x30, 0x5c, 0xbe, 0x7c, 0xfc, 0x62, 0xbe,
  0x78, 0x3a, 0x52, 0xbd, 0xe6, 0x62, 0x2a, 0xbe, 0x43, 0xc7, 0x24, 0xbe,
  0xa2, 0x88, 0x51, 0xbe, 0xdd, 0xf1, 0xdc, 0x3d, 0x2b, 0x77, 0x1d, 0x3a,
  0x3e, 0x33, 0x0a, 0xbc, 0xdf, 0x09, 0x21, 0x3d, 0x0a, 0xbb, 0x2c, 0xbe,
  0x7f, 0xfd, 0xed, 0x3d, 0x3e, 0x36, 0xfe, 0xbd, 0x41, 0x1f, 0x51, 0x3e,
  0x18, 0x2d, 0xa1, 0x3d, 0x42, 0x8c, 0x06, 0xbe, 0x55, 0xc7, 0xe8, 0xbd,
  0x88, 0xfe, 0x03, 0x3e, 0x8f, 0x4c, 0x48, 0xbe, 0xbb, 0x67, 0x19, 0xbb,
  0xc0, 0xec, 0x30, 0x3e, 0xab, 0x8d, 0x5b, 0xbd, 0x5e, 0x52, 0x5a, 0xbe,
  0x38, 0x20, 0x91, 0xbc, 0x7c, 0x5f, 0x21, 0x3e, 0x92, 0x0e, 0x98, 0xbd,
  0x2f, 0x42, 0x9d, 0x3d, 0xee, 0x42, 0x13, 0xbe, 0x84, 0x4d, 0x38, 0x3e,
  0x18, 0x2f, 0x49, 0x3d, 0x5a, 0x42, 0x0c, 0xbe, 0xd2, 0xb5, 0x3a, 0x3e,
  0x1b, 0x94, 0x94, 0xbd, 0x17, 0x14, 0x20, 0xbe, 0x3c, 0xa2, 0xee, 0x3d,
  0xb9, 0xda, 0x29, 0xbe, 0x5d, 0xe0, 0xef, 0xbd, 0xab, 0xb1, 0x7a, 0x3d,
  0xfc, 0xe4, 0x19, 0xbe, 0x34, 0x50, 0x15, 0x3e, 0xb4, 0x63, 0x59, 0xbd,
  0x68, 0xc6, 0x49, 0x3d, 0xec, 0x30, 0x37, 0xbe, 0x5b, 0x02, 0x30, 0xbd,
  0x64, 0x9b, 0x5b, 0xbe, 0xc7, 0x70, 0x04, 0xbd, 0x68, 0x49, 0xd1, 0xbd,
  0x0a, 0x5a, 0x2d, 0xbe, 0x6b, 0xfa, 0xe4, 0x3d, 0xb5, 0x16, 0xb9, 0xbd,
  0x0b, 0x18, 0x45, 0xbe, 0x22, 0x2e, 0x12, 0xbe, 0xb8, 0xe9, 0x37, 0x3e,
  0x36, 0x2e, 0x16, 0x3e, 0x79, 0xbb, 0x15, 0xbe, 0xc3, 0x9b, 0x12, 0xbe,
  0x80, 0xdb, 0xf7, 0xbd, 0xb5, 0x09, 0xa1, 0x3d, 0xf0, 0xd5, 0xf5, 0x3c,
  0x94, 0x71, 0xdb, 0x3d, 0x2b, 0x36, 0xe9, 0x3d, 0x32, 0xce, 0x9c, 0x3d,
  0xc2, 0x0c, 0xf6, 0x3d, 0xea, 0x4b, 0x56, 0x3e, 0x1c, 0xfd, 0x4b, 0x3b,
  0x14, 0xbc, 0x41, 0xbd, 0xd4, 0x15, 0x5f, 0x3e, 0x89, 0x83, 0xd4, 0x3c,
  0xe1, 0xac, 0x6e, 0x3c, 0x98, 0x56, 0x77, 0x3d, 0x57, 0x58, 0x4c, 0xbe,
  0xee, 0xd5, 0x5c, 0x3e, 0x50, 0x97, 0x5b, 0x3e, 0xa1, 0xd6, 0x70, 0xbc,
  0x24, 0xea, 0x54, 0x3d, 0x9c, 0x01, 0x19, 0xbd, 0x51, 0xfe, 0x3c, 0xbe,
  0x10, 0x59, 0xab, 0x3d, 0x82, 0x82, 0x42, 0xbd, 0x13, 0xcf, 0xc5, 0x3d,
  0x82, 0x17, 0xff, 0xbd, 0xd6, 0xb0, 0x71, 0x3d, 0x7c, 0x34, 0x63, 0xbd,
  0x46, 0xa1, 0x6d, 0x3b, 0x95, 0xb4, 0x70, 0x3d, 0xa4, 0x4a, 0x0d, 0xbd,
  0x99, 0xd7, 0xca, 0xbd, 0xb5, 0x92, 0x12, 0x3d, 0xe4, 0x0f, 0x87, 0x3c,
  0x17, 0x52, 0x4d, 0xbe, 0x7d, 0x83, 0x11, 0xbd, 0xa6, 0x97, 0x07, 0xbe,
  0x5e, 0xc8, 0x06, 0x3e, 0x93, 0x77, 0x75, 0xbd, 0x72, 0x7b, 0x44, 0x3e,
  0xa2, 0x9e, 0xe6, 0xbd, 0x85, 0x9b, 0x13, 0x3e, 0x73, 0x3e, 0xee, 0xbb,
  0x62, 0xbd, 0x5c, 0xbe, 0x0a, 0x2b, 0xea, 0xbd, 0x6e, 0xd0, 0x26, 0xbe,
  0xd8, 0xa6, 0x55, 0xbe, 0x9a, 0x4e, 0x1c, 0xbc, 0xd6, 0xab, 0x1f, 0x3e,
  0x90, 0x24, 0x2e, 0x3e, 0x2e, 0x3a, 0x3a, 0x3d, 0x68, 0xa1, 0xc1, 0xbc,
  0x39, 0xed, 0x40, 0x3e, 0x74, 0x89, 0x3c, 0x3e, 0xc9, 0xd6, 0xa5, 0x3d,
  0x09, 0x8c, 0x98, 0xbd, 0xd1, 0x43, 0xc4, 0xbd, 0x7e, 0x0e, 0x0d, 0xbe,
  0x60, 0x91, 0x95, 0x3b, 0xc3, 0xd0, 0x38, 0xbd, 0x91, 0x75, 0xec, 0x3d,
  0x87, 0xe5, 0x3e, 0x3c, 0x6c, 0x1d, 0x73, 0xbd, 0x8a, 0xa5, 0x14, 0x3e,
  0x0c, 0x2d, 0x41, 0xbe, 0x9a, 0x7f, 0xa0, 0x3d, 0x72, 0x18, 0x83, 0x3d,
  0xc7, 0x7f, 0x01, 0x3c, 0xa4, 0xcd, 0xd1, 0x3c, 0xf2, 0x6f, 0x59, 0x3e,
  0x30, 0x24, 0x03, 0xbe, 0x5e, 0x72, 0xec, 0x3d, 0x96, 0x44, 0x9c, 0xbd,
  0x44, 0x5f, 0x39, 0xbd, 0x80, 0x0d, 0xac, 0xbc, 0xce, 0x4c, 0xfc, 0xbd,
  0x7a, 0x09, 0x4b, 0x3e, 0x50, 0xb9, 0x55, 0x3e, 0xc9, 0x4b, 0x07, 0x3e,
  0x2a, 0x39, 0x87, 0xbc, 0xaf, 0x6d, 0x12, 0x3b, 0xbb, 0x58, 0x80, 0xbd,
  0x52, 0x85, 0x42, 0xbe, 0x9e, 0x5d, 0x3e, 0xbd, 0x51, 0x37, 0xaa, 0xbd,
  0x5e, 0xb2, 0x10, 0x3e, 0x43, 0xc7, 0x69, 0x3e, 0xff, 0xed, 0xce, 0xbd,
  0x9e, 0xc8, 0x81, 0x3d, 0x05, 0x18, 0x0c, 0xbe, 0xb2, 0x44, 0xa0, 0x3d,
  0x72, 0xfb, 0x17, 0xbd, 0x6f, 0x47, 0xd4, 0x3d, 0x8c, 0x11, 0xae, 0xbd,
  0xfe, 0xa4, 0x42, 0xbe, 0x0d, 0x32, 0xb7, 0x3d, 0xec, 0xe5, 0x20, 0xbe,
  0xdd, 0x57, 0x39, 0x3e, 0xc7, 0xf2, 0x75, 0xbd, 0x22, 0xb3, 0x44, 0x3e,
  0x49, 0x2b, 0x3f, 0xbe, 0x14, 0xd7, 0x7a, 0xbd, 0xd3, 0xcc, 0xb0, 0x3d,
  0x4b, 0x21, 0xda, 0x3d, 0xf9, 0x43, 0x18, 0x3e, 0xad, 0x99, 0x14, 0xbd,
  0xec, 0xae, 0x97, 0x3d, 0x99, 0x3f, 0x2b, 0x3e, 0x28, 0x26, 0x41, 0x3e,
  0x14, 0x65, 0x13, 0xbe, 0xb5, 0x58, 0x1f, 0x3d, 0x1e, 0x97, 0x23, 0xbe,
  0x41, 0xc7, 0x15, 0x3e, 0xb3, 0x52, 0xee, 0xbd, 0x0c, 0x2a, 0x38, 0xbd,
  0x57, 0xf3, 0x70, 0x3d, 0x1f, 0x62, 0x1b, 0xbe, 0x94, 0xef, 0x1e, 0xbd,
  0x28, 0x3c, 0xd9, 0x3d, 0x17, 0xe9, 0xd5, 0xbd, 0xbc, 0xe3, 0x22, 0xbe,
  0x3c, 0x4f, 0x02, 0xbd, 0x56, 0x21, 0x02, 0xbe, 0x20, 0xbc, 0xd0, 0xbb,
  0x7a, 0xd9, 0x0c, 0xbe, 0x3c, 0x9d, 0x69, 0x3e, 0xc0, 0x0a, 0x8b, 0x3d,
  0x0c, 0x3b, 0x11, 0xbd, 0x62, 0x25, 0x0c, 0x3d, 0x9c, 0xd0, 0x76, 0x3e,
  0x10, 0x53, 0x0e, 0xbd, 0x0a, 0x01, 0x1e, 0x3e, 0xf1, 0x75, 0x6b, 0xbd,
  0xc6, 0x6e, 0xa8, 0x3d, 0x36, 0x57, 0x89, 0xbd, 0xa8, 0x1e, 0x55, 0x3d,
  0x3b, 0xff, 0x27, 0xbe, 0xe2, 0xb8, 0x28, 0xbe, 0x9b, 0x30, 0x49, 0x3c,
  0x0e, 0x1a, 0xb8, 0x3d, 0x89, 0x38, 0x49, 0x3e, 0xa5, 0x6a, 0xd8, 0x3d,
  0xb4, 0xc5, 0x64, 0xbd, 0xa1, 0x65, 0x57, 0xbd, 0xa7, 0xb8, 0x3c, 0x3e,
  0xcc, 0x4f, 0x41, 0x3e, 0xc2, 0x8d, 0x1d, 0x3c, 0x08, 0x11, 0x13, 0xbd,
  0xd4, 0xc7, 0x4c, 0x3e, 0x73, 0x39, 0x14, 0xbe, 0x99, 0x16, 0x3a, 0xbe,
  0x5e, 0x49, 0x59, 0x3d, 0xf6, 0x5c, 0xd8, 0x3d, 0x08, 0x28, 0x5a, 0xbd,
  0x80, 0x52, 0xfc, 0xbd, 0xde, 0x17, 0x21, 0xbe, 0xfb, 0x07, 0xd6, 0x3c,
  0x18, 0x84, 0xa9, 0x3d, 0x6c, 0x26, 0x30, 0xbe, 0xce, 0x4b, 0xca, 0xbd,
  0x04, 0x10, 0xaf, 0x3c, 0x79, 0xb7, 0x19, 0xbe, 0x86, 0xac, 0x35, 0xbb,
  0x71, 0x00, 0xcd, 0x3d, 0xff, 0xc3, 0x07, 0xbd, 0xd0, 0xbd, 0xd5, 0x3c,
  0x88, 0x8d, 0xb4, 0xbd, 0x3e, 0x95, 0x04, 0xbe, 0x81, 0x22, 0x0f, 0x3e,
  0xa3, 0xc8, 0xe4, 0xbd, 0xf2, 0x54, 0x3c, 0xbd, 0xa8, 0x88, 0x72, 0x3d,
  0x9c, 0xc7, 0x0d, 0xbd, 0xdf, 0x90, 0x70, 0xbd, 0x16, 0xf2, 0x08, 0xbe,
  0x7d, 0xe7, 0x0e, 0xbe, 0x89, 0x2f, 0xdb, 0x3d, 0xbd, 0x28, 0x36, 0xbe,
  0x98, 0xe6, 0x1c, 0x3e, 0x90, 0x56, 0xe2, 0x3d, 0x3a, 0x2f, 0xe1, 0x3b,
  0x54, 0xd8, 0x30, 0x3e, 0x0a, 0x28, 0x22, 0x3e, 0x18, 0xae, 0x33, 0x3e,
  0xcb, 0xba, 0x1c, 0xbe, 0xc7, 0xb9, 0x13, 0xbe, 0x5a, 0xae, 0xfa, 0xbd,
  0xc8, 0x08, 0x83, 0xbd, 0xb3, 0x50, 0xea, 0xbd, 0xdc, 0xf6, 0x0b, 0xbd,
  0x28, 0x88, 0x02, 0xbe, 0x28, 0x4f, 0x2b, 0x3e, 0x61, 0x06, 0x04, 0x3a,
  0x29, 0xe4, 0x05, 0x3e, 0xba, 0x54, 0x2f, 0xbd, 0xd9, 0x6d, 0x03, 0xbe,
  0xbd, 0x54, 0x14, 0xbe, 0x86, 0x9a, 0xac, 0x3c, 0xb8, 0x1f, 0xd1, 0x3d,
  0x0f, 0x99, 0xd3, 0xbd, 0x28, 0xbd, 0xf4, 0x3d, 0x7c, 0x79, 0x9f, 0x3d,
  0x24, 0xc7, 0x41, 0x3e, 0x72, 0x98, 0x07, 0x3e, 0x3d, 0xa1, 0x33, 0x3e,
  0x4f, 0xae, 0x3b, 0xbe, 0xbe, 0x23, 0x46, 0xbb, 0x1c, 0xf6, 0xf5, 0x3d,
  0xa3, 0x3e, 0x01, 0xbe, 0x36, 0xa4, 0x88, 0xbd, 0xbd, 0xc0, 0x02, 0xbd,
  0xdc, 0x80, 0x2d, 0xbe, 0xd3, 0x62, 0x41, 0x3e, 0xd2, 0xfd, 0x94, 0x3d,
  0x44, 0x9b, 0x1c, 0xbe, 0xcd, 0xda, 0x01, 0x3e, 0x07, 0xe8, 0x43, 0x3e,
  0xc2, 0xff, 0x31, 0x3d, 0xf4, 0x1b, 0x10, 0x3e, 0xec, 0x5a, 0x6f, 0xbd,
  0x52, 0xe7, 0xd5, 0x3d, 0xd9, 0xc5, 0x5d, 0x3e, 0xcd, 0x6a, 0xe2, 0x3d,
  0x3f, 0x97, 0x3d, 0x3e, 0xd1, 0xac, 0xd1, 0x3d, 0x1f, 0x8b, 0x30, 0x3c,
  0x58, 0xc7, 0x59, 0x3d, 0x92, 0xb6, 0xb8, 0xbd, 0xac, 0xd5, 0x50, 0x3e,
  0x73, 0x5a, 0xa7, 0xbd, 0x9b, 0x11, 0x45, 0x3e, 0x30, 0x0e, 0x57, 0x3e,
  0x38, 0x88, 0xe5, 0xbd, 0xdc, 0x47, 0x79, 0x3c, 0x6b, 0xee, 0xb0, 0x3d,
  0xd0, 0x3f, 0x63, 0xbe, 0x6d, 0xb9, 0xe7, 0xbd, 0x22, 0x75, 0x44, 0x3e,
  0xa0, 0x12, 0x7d, 0x3c, 0xd0, 0xc0, 0x22, 0xbe, 0x94, 0x6f, 0x53, 0xbe,
  0x25, 0x36, 0x6b, 0xbd, 0x8c, 0x64, 0x01, 0x3d, 0x3c, 0x1a, 0x1c, 0xbd,
  0x61, 0x9b, 0x29, 0xbd, 0x83, 0x3e, 0x60, 0xba, 0x62, 0x09, 0x17, 0x3e,
  0xf6, 0x8e, 0x54, 0xbe, 0x66, 0xf9, 0x25, 0x3e, 0xb6, 0x90, 0x3c, 0xbe,
  0x68, 0x2a, 0xd5, 0xbd, 0xa5, 0x73, 0x00, 0xbc, 0xf1, 0x59, 0xac, 0xbd,
  0x39, 0x4c, 0x8e, 0xbd, 0x01, 0xa6, 0x84, 0xbc, 0x44, 0x50, 0x22, 0xbe,
  0xac, 0x8f, 0x13, 0xbd, 0xb8, 0x93, 0x40, 0xbd, 0x70, 0xc6, 0x05, 0x3e,
  0xe4, 0x30, 0x9a, 0x3d, 0x4b, 0x82, 0xc5, 0xbd, 0xa2, 0xf4, 0x5e, 0x3e,
  0x70, 0x06, 0x11, 0xbc, 0x0c, 0x61, 0x38, 0x3e, 0x7a, 0xdd, 0x11, 0xbe,
  0xaf, 0xaa, 0x5c, 0xbe, 0xff, 0x3e, 0x45, 0xbe, 0x08, 0x40, 0x0d, 0xbe,
  0x18, 0xf3, 0x97, 0xbd, 0xa8, 0x98, 0x7c, 0x3d, 0xfe, 0x72, 0x39, 0xbe,
  0xcc, 0x59, 0x19, 0xbe, 0x90, 0x48, 0x9a, 0x3d, 0xd3, 0x41, 0x29, 0xbe,
  0xae, 0x66, 0x25, 0xbe, 0x98, 0x76, 0x01, 0x3e, 0xfc, 0xa1, 0xf6, 0x3d,
  0x52, 0x70, 0x05, 0xbe, 0x2c, 0xf9, 0x9f, 0x3d, 0x50, 0x1b, 0xed, 0x3d,
  0x18, 0xb7, 0x08, 0xbe, 0xf3, 0xc2, 0xeb, 0xbd, 0x47, 0x2b, 0x53, 0xbe,
  0x68, 0x75, 0x3b, 0x3e, 0xc6, 0xc9, 0x10, 0x3e, 0x10, 0x93, 0xb3, 0x3d,
  0x18, 0x73, 0xe0, 0x3d, 0x2a, 0x40, 0x33, 0xbe, 0x50, 0x98, 0x13, 0xbd,
  0x80, 0x21, 0x79, 0x3b, 0xc4, 0x25, 0x2d, 0x3e, 0x49, 0xda, 0xf8, 0xbd,
  0x78, 0xa0, 0x26, 0x3e, 0x88, 0xf7, 0xc3, 0x3d, 0xd0, 0x99, 0x3c, 0x3c,
  0x80, 0xcc, 0x06, 0x3d, 0x63, 0x78, 0x31, 0xbe, 0x34, 0xb7, 0x4f, 0xbe,
  0x72, 0x8a, 0x47, 0x3e, 0xb0, 0x08, 0x9e, 0x3c, 0x18, 0x4b, 0x30, 0x3d,
  0x68, 0x29, 0x91, 0xbd, 0x88, 0xe4, 0xf9, 0x3d, 0xb3, 0xd0, 0x30, 0xbe,
  0x13, 0x96, 0x4d, 0xbe, 0x08, 0x83, 0x59, 0x3d, 0xf8, 0xfa, 0x12, 0x3d,
  0x28, 0x2f, 0xe2, 0xbd, 0x40, 0x6a, 0xc2, 0x3c, 0xc8, 0xe0, 0x1f, 0x3d,
  0xd0, 0x4f, 0x8a, 0xbc, 0xea, 0x65, 0x1b, 0xbe, 0x68, 0x1e, 0xe5, 0xbc,
  0xdf, 0x97, 0x0e, 0xbe, 0xa8, 0x5f, 0xd5, 0x3c, 0x24, 0x79, 0xef, 0x3d,
  0xd7, 0x20, 0xde, 0xbd, 0xcc, 0xce, 0xf5, 0x3d, 0x5c, 0xec, 0xe8, 0x3d,
  0xbc, 0x14, 0xe8, 0x3d, 0x70, 0x83, 0x5a, 0xbc, 0xd6, 0x7e, 0x10, 0x3e,
  0xae, 0xa9, 0x0c, 0x3e, 0x64, 0xc9, 0x16, 0x3e, 0x00, 0x33, 0x58, 0x3e,
  0x90, 0x67, 0x48, 0x3c, 0x80, 0x47, 0xb2, 0x3c, 0xd8, 0x17, 0x57, 0x3e,
  0x21, 0x56, 0x20, 0xbe, 0x3c, 0xe7, 0x1e, 0x3e, 0x68, 0xee, 0x9e, 0xbd,
  0x88, 0xeb, 0x65, 0xbd, 0x40, 0xa6, 0x13, 0x3e, 0x98, 0x89, 0x9f, 0xbd,
  0x90, 0xf5, 0xd5, 0xbc, 0xf4, 0x1a, 0x8f, 0x3d, 0xd8, 0xa8, 0x1f, 0x3e,
  0x28, 0x93, 0x44, 0xbe, 0xd8, 0x84, 0x8b, 0x3c, 0x00, 0xad, 0xe5, 0x3d,
  0x24, 0x16, 0x3d, 0xbd, 0xac, 0x71, 0x30, 0xbe, 0x98, 0x67, 0x66, 0x3d,
  0xbe, 0x07, 0xb0, 0xbd, 0x28, 0x0e, 0x52, 0x3e, 0x98, 0xf6, 0x1f, 0x3e,
  0x24, 0x17, 0xad, 0xbd, 0x40, 0x3d, 0xf2, 0xbc, 0xaf, 0x98, 0x08, 0xbe,
  0xbc, 0xac, 0x1b, 0xbe, 0xfc, 0xa3, 0x40, 0x3e, 0x9f, 0x8f, 0xed, 0xbd,
  0x7f, 0xda, 0x32, 0xbe, 0xa8, 0x3e, 0xd0, 0x3d, 0x5c, 0x0f, 0x12, 0xbe,
  0xb0, 0x8c, 0x03, 0xbd, 0xd8, 0x08, 0x9b, 0x3d, 0xa6, 0x62, 0x31, 0x3e,
  0xb4, 0xfe, 0x48, 0x3e, 0x76, 0xe9, 0x57, 0x3e, 0x10, 0x9c, 0x3b, 0x3d,
  0x6c, 0x99, 0x52, 0x3e, 0x4d, 0x38, 0xda, 0xbd, 0x10, 0xd1, 0x16, 0x3c,
  0x03, 0xa3, 0x88, 0xbd, 0x89, 0xac, 0xc4, 0xbd, 0xb1, 0xd9, 0x12, 0xbe,
  0x6c, 0xd0, 0x97, 0x3d, 0x48, 0x8f, 0xb2, 0x3d, 0x66, 0x43, 0x86, 0x3d,
  0x8f, 0x1b, 0x2e, 0xbe, 0x51, 0x67, 0xd1, 0xbd, 0x51, 0x8f, 0x52, 0x3e,
  0xe4, 0xc8, 0xf7, 0xbc, 0x69, 0x31, 0xc4, 0x3c, 0x42, 0x95, 0x1c, 0xbe,
  0x52, 0x91, 0x2b, 0x3e, 0xfc, 0x00, 0xb9, 0x3d, 0x21, 0xc3, 0x35, 0x3e,
  0x56, 0xfc, 0x1a, 0xbe, 0x2e, 0x42, 0x4f, 0x3e, 0x2a, 0x6c, 0x5c, 0x3e,
  0x82, 0xd4, 0xb9, 0xbd, 0xe2, 0x2f, 0xad, 0x3d, 0xca, 0x35, 0x1f, 0x3e,
  0x7e, 0xaf, 0x0b, 0x3d, 0x97, 0x16, 0x00, 0x3d, 0x2c, 0x64, 0x2b, 0xbd,
  0xc2, 0x0d, 0x4d, 0xbe, 0x07, 0x69, 0xa1, 0x3d, 0xaa, 0xf9, 0x8e, 0x3d,
  0x23, 0xa8, 0x90, 0x3c, 0xb7, 0xda, 0xb4, 0x3d, 0x50, 0x9d, 0x0b, 0xbe,
  0x38, 0xa0, 0x4f, 0x3d, 0xf7, 0x83, 0xf6, 0x3d, 0xc5, 0x7b, 0x80, 0x3d,
  0x4b, 0x54, 0x92, 0x3c, 0x64, 0x27, 0xe7, 0x3d, 0x68, 0x7d, 0xf5, 0xbc,
  0x88, 0x0d, 0x8e, 0xbd, 0xb6, 0xf2, 0x36, 0xbe, 0xf8, 0xe6, 0x83, 0xbd,
  0x90, 0xb2, 0x33, 0x3e, 0x59, 0x45, 0x03, 0x3c, 0xa4, 0x1b, 0xfa, 0x3b,
  0x30, 0xa0, 0x8a, 0x3c, 0x5c, 0x20, 0x70, 0xbe, 0xca, 0x42, 0x56, 0x3c,
  0xc5, 0xe2, 0x0d, 0xbe, 0x2d, 0x54, 0x27, 0x3e, 0x2a, 0xd6, 0x3b, 0x3e,
  0x18, 0x03, 0x8a, 0xbd, 0xd5, 0x8f, 0x8d, 0x3d, 0x95, 0x74, 0xdd, 0xbd,
  0xee, 0x55, 0x72, 0xbd, 0xc1, 0x16, 0x1f, 0xbe, 0xe2, 0xf2, 0x8f, 0x3d,
  0x7c, 0x0b, 0x3f, 0xbe, 0x30, 0x99, 0xa4, 0x3d, 0x0b, 0xa0, 0xbb, 0xbd,
  0x2c, 0xbd, 0x19, 0x3e, 0x62, 0x37, 0x28, 0x3e, 0xd2, 0xb9, 0x03, 0x3e,
  0x11, 0x69, 0xf9, 0x3d, 0xe5, 0xb2, 0xa5, 0x3c, 0xf9, 0xda, 0x34, 0xbe,
  0x15, 0x66, 0x8f, 0x3d, 0xd3, 0x57, 0x17, 0x3e, 0x59, 0x9a, 0xcf, 0x3d,
  0xf0, 0xd9, 0x9d, 0x3c, 0x63, 0x67, 0x1c, 0x3e, 0xed, 0x7f, 0x6d, 0xbe,
  0x54, 0x58, 0x16, 0xbe, 0x64, 0x9a, 0x2c, 0xbe, 0x6e, 0x5d, 0x14, 0x3e,
  0xf2, 0x75, 0x25, 0xbd, 0x99, 0xba, 0x40, 0x3d, 0xb1, 0x11, 0x28, 0xbe,
  0x3d, 0x3b, 0xdc, 0x3d, 0xbb, 0xef, 0x1d, 0x3d, 0x38, 0xe8, 0x29, 0x3e,
  0x4f, 0x01, 0x3c, 0xbe, 0xdc, 0x29, 0x11, 0xbe, 0xbb, 0x52, 0xa4, 0x3d,
  0x87, 0x99, 0x0e, 0x3e, 0x9c, 0xe2, 0xb0, 0x3d, 0xe6, 0xe7, 0x13, 0x3e,
  0xa7, 0x33, 0x71, 0x3d, 0x71, 0x30, 0x85, 0x3d, 0x52, 0xe6, 0x7e, 0x3c,
  0xf9, 0x0e, 0x62, 0x3e, 0x42, 0x4a, 0xa9, 0x3d, 0x5a, 0xac, 0x10, 0xbe,
  0xa6, 0x28, 0x44, 0x3e, 0x36, 0xfd, 0x84, 0xbc, 0x94, 0x7c, 0xd9, 0xbd,
  0xd8, 0x65, 0x40, 0xbe, 0x32, 0xbb, 0x3c, 0xbd, 0x40, 0x01, 0xa4, 0x3c,
  0xbb, 0x64, 0xcf, 0xbc, 0x8c, 0xdb, 0x16, 0xbe, 0x51, 0x37, 0xc3, 0x3c,
  0xc5, 0xd9, 0x01, 0x3e, 0x2b, 0x63, 0x83, 0x3c, 0x63, 0x33, 0xfd, 0xba,
  0x98, 0x5a, 0xdc, 0x3d, 0x47, 0x38, 0x2c, 0xbd, 0xed, 0x2d, 0x06, 0x3e,
  0xd1, 0x64, 0xcd, 0xbd, 0x2e, 0x85, 0x0e, 0xbe, 0x2c, 0xe1, 0x30, 0x3e,
  0x40, 0xa4, 0x47, 0x3d, 0x14, 0x63, 0x4c, 0xbe, 0x0c, 0x49, 0x9b, 0xbd,
  0x7f, 0x2c, 0xdb, 0xbd, 0xd0, 0xd2, 0xa9, 0x3d, 0x0c, 0x85, 0x0d, 0xbe,
  0x89, 0x17, 0xd3, 0xbd, 0x74, 0x63, 0x2b, 0xbd, 0x90, 0xd9, 0x3b, 0x3e,
  0xe5, 0x00, 0x18, 0xbe, 0x7d, 0xeb, 0x11, 0xbe, 0x0e, 0xf5, 0xba, 0xbd,
  0x9c, 0xe8, 0xa4, 0xbd, 0xf0, 0x00, 0x5a, 0x3e, 0x54, 0x74, 0x83, 0x3d,
  0x38, 0x2e, 0x7b, 0x3d, 0x28, 0x2e, 0x7b, 0xbd, 0x80, 0x73, 0xc5, 0x3b,
  0xa8, 0x28, 0x5a, 0x3e, 0xf2, 0xa6, 0x59, 0x3e, 0x48, 0x10, 0x46, 0x3e,
  0x2e, 0xbf, 0x0e, 0x3e, 0x9c, 0x6f, 0x2a, 0xbe, 0x2a, 0x08, 0xb2, 0xbd,
  0x68, 0x53, 0xe4, 0xbd, 0x40, 0x67, 0xff, 0xbb, 0xa0, 0x72, 0x94, 0xbd,
  0xe8, 0xe5, 0xd4, 0x3d, 0xc8, 0x73, 0xc6, 0xbc, 0xdc, 0xfd, 0xd2, 0x3d,
  0x00, 0x71, 0x82, 0x3d, 0x00, 0x5f, 0xdb, 0x3b, 0x18, 0xfd, 0xe9, 0xbc,
  0x8f, 0x94, 0x20, 0xbe, 0x40, 0x3b, 0x4b, 0xbd, 0x48, 0xb5, 0x2c, 0x3e,
  0x1e, 0xcc, 0x9e, 0xbd, 0xf0, 0xff, 0x0b, 0xbd, 0x98, 0xca, 0x52, 0x3d,
  0x14, 0xe7, 0x1d, 0x3e, 0xd0, 0x01, 0xae, 0xbc, 0xda, 0xe1, 0x11, 0x3e,
  0xe6, 0x7a, 0xd4, 0xbd, 0x7a, 0x96, 0x4e, 0x3e, 0x8e, 0x6d, 0x56, 0x3e,
  0xf6, 0x31, 0x1d, 0x3e, 0x96, 0xd1, 0x46, 0x3e, 0x10, 0xaa, 0xb2, 0xbc,
  0xdc, 0xec, 0xdc, 0x3d, 0x06, 0xc5, 0x15, 0x3e, 0xd0, 0x3b, 0xe6, 0xbc,
  0xa6, 0xfc, 0x56, 0xbe, 0xfc, 0x54, 0x49, 0xbe, 0xae, 0xcb, 0x45, 0x3e,
  0x2a, 0x49, 0x1a, 0x3e, 0x1d, 0xa1, 0x35, 0xbe, 0xc0, 0xf4, 0x55, 0x3b,
  0xf8, 0xa5, 0x59, 0xbd, 0x25, 0xe4, 0x25, 0xbe, 0xc0, 0xfd, 0xab, 0xbb,
  0x0a, 0xcd, 0xb2, 0xbd, 0x4c, 0x4e, 0x6d, 0xbd, 0x1e, 0x1a, 0xbb, 0xbd,
  0x38, 0x4c, 0x06, 0x3d, 0xe8, 0x10, 0x1a, 0x3e, 0x92, 0x73, 0x54, 0xbe,
  0x78, 0x1b, 0xf4, 0xbc, 0x40, 0xfe, 0x02, 0xbd, 0x08, 0x82, 0x0d, 0xbd,
  0x79, 0x3f, 0x53, 0xbe, 0xf2, 0x55, 0x16, 0xbe, 0x60, 0x87, 0x11, 0xbe,
  0x5e, 0xb3, 0x4c, 0x3e, 0x5c, 0xe5, 0xb1, 0x3d, 0x09, 0x58, 0x13, 0xbe,
  0x8c, 0xda, 0x8a, 0xbd, 0x2c, 0x97, 0x11, 0xbe, 0x00, 0x7a, 0x74, 0x3d,
  0x56, 0x07, 0x9d, 0xbd, 0xac, 0xfe, 0xf1, 0x3d, 0x48, 0x70, 0x32, 0x3e,
  0x7c, 0x47, 0x16, 0x3e, 0xbc, 0xf0, 0x2a, 0x3e, 0x93, 0x4f, 0xd0, 0xbd,
  0x57, 0xa7, 0x3b, 0xbe, 0x76, 0x49, 0x58, 0x3e, 0x10, 0xbf, 0x5f, 0xbc,
  0xfc, 0x7e, 0xfc, 0x3d, 0x94, 0x09, 0x35, 0x3e, 0x92, 0xb2, 0x1f, 0x3e,
  0x90, 0x58, 0xcf, 0xbc, 0x70, 0x5a, 0xfc, 0x3c, 0xbc, 0xaa, 0x4c, 0x3e,
  0xed, 0x23, 0x54, 0xbe, 0x83, 0x1b, 0xce, 0xbd, 0xd6, 0x74, 0x19, 0xbe,
  0xc8, 0xe3, 0xf4, 0xbd, 0xdc, 0x3e, 0xa8, 0xbd, 0x56, 0x28, 0x41, 0x3e,
  0x81, 0x41, 0x49, 0xbe, 0x30, 0x6b, 0x8f, 0x3c, 0x30, 0x7b, 0xc7, 0xbc,
  0xd8, 0xaa, 0x73, 0x3d, 0x04, 0x71, 0x0a, 0xbe, 0x80, 0xc1, 0xe7, 0xbc,
  0xdd, 0x51, 0x55, 0xbe, 0x2c, 0x32, 0x48, 0x3e, 0x54, 0x59, 0x9b, 0x3d,
  0xf7, 0x83, 0x27, 0xbe, 0xa9, 0x81, 0x97, 0x3c, 0xa4, 0x6c, 0x54, 0x3d,
  0x82, 0x4d, 0x74, 0xbd, 0xe1, 0x97, 0x28, 0xbe, 0x9b, 0x06, 0x5d, 0xbe,
  0x24, 0xdf, 0xcc, 0xbd, 0xe9, 0x63, 0xd2, 0x3d, 0x72, 0x45, 0x2b, 0xbe,
  0x57, 0x87, 0x3a, 0xbe, 0xdb, 0x86, 0x1d, 0xbe, 0xa8, 0x13, 0x56, 0x3e,
  0xde, 0x0e, 0x97, 0x3d, 0x0c, 0x65, 0x5f, 0x3c, 0x98, 0x47, 0x56, 0xbe,
  0x26, 0xb0, 0xdb, 0xbd, 0x61, 0x03, 0xdf, 0xbd, 0x78, 0x6b, 0x91, 0xbd,
  0x50, 0xfa, 0x09, 0x3e, 0xff, 0x36, 0x64, 0xbe, 0xe7, 0xff, 0xab, 0xbd,
  0x1d, 0x4b, 0x0c, 0x3e, 0x33, 0xd6, 0x22, 0xbe, 0x00, 0x77, 0x63, 0x3a,
  0x58, 0x23, 0x4b, 0x3e, 0x5b, 0x21, 0x78, 0x3d, 0x7d, 0x8f, 0x1e, 0x3e,
  0x5a, 0x87, 0xf0, 0x3c, 0xba, 0xa6, 0x35, 0x3e, 0x02, 0xb0, 0x4f, 0x3e,
  0x9c, 0xb9, 0xd2, 0x3d, 0x08, 0x71, 0x20, 0xbb, 0x42, 0x29, 0xb1, 0x3d,
  0xf4, 0xbd, 0x82, 0x3d, 0x4d, 0x4b, 0x70, 0xbc, 0xaa, 0x15, 0x8b, 0xbd,
  0x35, 0x36, 0xc7, 0x3d, 0xd5, 0x54, 0x08, 0xbe, 0xa6, 0xe7, 0xdb, 0xb9,
  0x1f, 0x25, 0xad, 0x3c, 0xca, 0xd5, 0x69, 0x3d, 0x29, 0xbe, 0x34, 0x3e,
  0x3a, 0x69, 0x91, 0xbd, 0xd1, 0x47, 0xac, 0x3d, 0xf5, 0xd2, 0xf9, 0xbc,
  0x6d, 0xe5, 0x3f, 0x3e, 0xa4, 0x18, 0x1c, 0xbe, 0xf8, 0x20, 0x36, 0x3d,
  0xa0, 0x96, 0x00, 0x3e, 0xf3, 0xb8, 0x33, 0x3d, 0xe1, 0xd0, 0x46, 0xbe,
  0xc7, 0x64, 0xee, 0xbd, 0xe5, 0xe7, 0x53, 0xbe, 0x8d, 0xb2, 0x9e, 0xbd,
  0x00, 0x46, 0xae, 0xbb, 0x65, 0x5f, 0xe9, 0xbd, 0x7b, 0x02, 0x2e, 0x3e,
  0x62, 0x72, 0x44, 0xbd, 0xe3, 0x54, 0x40, 0xbd, 0x00, 0x5c, 0x7f, 0x3a,
  0xea, 0xc9, 0x62, 0xbd, 0x3e, 0xdf, 0x46, 0x3e, 0xd8, 0xfd, 0x63, 0xbe,
  0x27, 0x2e, 0x11, 0x3d, 0x39, 0x6c, 0x20, 0xbd, 0x61, 0x91, 0x2a, 0x3c,
  0x40, 0x85, 0x85, 0x3d, 0x0b, 0xef, 0x09, 0x3e, 0x3b, 0x43, 0x2b, 0xbe,
  0xe8, 0x7a, 0x4d, 0x3d, 0xa6, 0x9f, 0x3b, 0x3e, 0xa6, 0xb4, 0xd9, 0xbd,
  0xc8, 0x5a, 0x16, 0x3c, 0x67, 0xe9, 0x15, 0x3e, 0x94, 0xc3, 0xca, 0xbd,
  0x8c, 0xb2, 0x49, 0xbe, 0xb7, 0x27, 0x20, 0xbc, 0xee, 0x2a, 0x2e, 0x3e,
  0x62, 0xb0, 0x91, 0xbd, 0x7f, 0xba, 0xa9, 0xbd, 0xe6, 0xcf, 0xaa, 0x3d,
  0x14, 0x70, 0x35, 0x3d, 0xff, 0x80, 0x23, 0x3d, 0x64, 0x01, 0xb0, 0xbd,
  0x91, 0xab, 0x64, 0xbc, 0xee, 0xa9, 0x2b, 0xbc, 0x8b, 0xd2, 0x26, 0xbe,
  0x9f, 0xc3, 0x04, 0x3d, 0xff, 0x77, 0x36, 0x3e, 0x53, 0x22, 0x37, 0x3e,
  0x00, 0xcf, 0xba, 0xbb, 0x30, 0x9a, 0xc5, 0xbd, 0x9c, 0x82, 0x24, 0xbe,
  0x30, 0x9c, 0x47, 0xbe, 0x0b, 0xaf, 0x52, 0x3e, 0xd0, 0x82, 0xfc, 0x3d,
  0xcf, 0x76, 0x48, 0x3e, 0xa2, 0xf3, 0x0c, 0xbe, 0x2f, 0x27, 0xce, 0x3d,
  0x4b, 0xc8, 0x5f, 0x3e, 0xb8, 0x73, 0x09, 0x3d, 0x12, 0xbd, 0x4e, 0x3e,
  0xac, 0x03, 0xa1, 0xbd, 0xe3, 0x3e, 0xa3, 0x3d, 0xfd, 0xb8, 0x04, 0xbe,
  0xe9, 0x0d, 0xe1, 0xbd, 0x19, 0x7c, 0x87, 0x3d, 0x0c, 0xb1, 0x5b, 0x3e,
  0xe4, 0xb5, 0x7d, 0x3d, 0x4b, 0xb6, 0xca, 0xbd, 0xc4, 0x3e, 0x1d, 0x3e,
  0xa9, 0x15, 0xd1, 0x3c, 0x6a, 0xee, 0x16, 0xbe, 0xa8, 0x90, 0xda, 0xbd,
  0x54, 0x8c, 0xda, 0x3d, 0xd1, 0xa7, 0x5d, 0x3d, 0xb6, 0xf1, 0xfb, 0xbd,
  0x3a, 0x48, 0x47, 0xbe, 0xd8, 0xe1, 0xe8, 0x3d, 0x1a, 0xc8, 0x1a, 0xbe,
  0x67, 0x7f, 0x1b, 0x3d, 0x45, 0xf4, 0x4d, 0xbe, 0xb6, 0xcc, 0x73, 0x3d,
  0x00, 0x8a, 0xac, 0xbd, 0x32, 0x0c, 0xb9, 0x3d, 0x6c, 0xd9, 0x73, 0xbe,
  0x58, 0x0d, 0x23, 0x3e, 0x90, 0xb9, 0xcb, 0x3c, 0x7c, 0x4b, 0x0a, 0x3e,
  0x38, 0x8c, 0xb2, 0xbc, 0x92, 0x5b, 0x9b, 0x3d, 0x80, 0x94, 0x6a, 0x3d,
  0xae, 0x75, 0xca, 0xbd, 0x32, 0xa0, 0x0b, 0x3e, 0x79, 0x68, 0x3a, 0xbe,
  0x5c, 0x30, 0x30, 0x3e, 0x95, 0xdd, 0xc2, 0x3d, 0x0a, 0xfa, 0x9c, 0x3d,
  0x9c, 0x90, 0xa8, 0xbd, 0xd1, 0x41, 0x97, 0xbc, 0xe6, 0x04, 0x63, 0xbd,
  0xd5, 0x8f, 0x38, 0xbe, 0x28, 0xb9, 0x50, 0xbe, 0x14, 0x8d, 0x58, 0x3e,
  0xc7, 0x16, 0xb9, 0x3d, 0xd7, 0x80, 0xfa, 0xbd, 0xd6, 0x2c, 0x18, 0x3e,
  0x19, 0xa3, 0xeb, 0xbd, 0xd1, 0xbd, 0x1b, 0xbe, 0x49, 0x78, 0xb8, 0x3d,
  0xf0, 0x12, 0x6b, 0x3c, 0x4f, 0x69, 0x76, 0xbd, 0xac, 0xf6, 0xd5, 0xbd,
  0xd0, 0x60, 0x60, 0x3e, 0x0d, 0x0f, 0x5e, 0x3e, 0xf0, 0x6f, 0x60, 0x3e,
  0xf8, 0x4b, 0x92, 0x3d, 0x34, 0x9e, 0xbe, 0xbd, 0x87, 0x83, 0x2e, 0x3d,
  0xb7, 0xd6, 0x2c, 0x3e, 0xee, 0x53, 0x2d, 0xbc, 0x58, 0x0e, 0x62, 0xbe,
  0xa8, 0x98, 0x79, 0x3d, 0x2f, 0xf5, 0x2e, 0xbc, 0x99, 0x46, 0x31, 0xbe,
  0xbb, 0x4b, 0x84, 0x37, 0xe1, 0x53, 0x2c, 0xbe, 0x00, 0xb2, 0x30, 0x3d,
  0x28, 0x6c, 0x29, 0x3e, 0x72, 0xc4, 0xdc, 0xbc, 0x19, 0xd6, 0x7e, 0xbe,
  0x3e, 0x30, 0x02, 0x3e, 0x40, 0xba, 0x08, 0xbe, 0x82, 0x1b, 0x2f, 0xbd,
  0xcc, 0xcc, 0x34, 0xbe, 0xf3, 0x25, 0x39, 0x3e, 0x58, 0xa9, 0x25, 0x3e,
  0xd1, 0x5c, 0x2d, 0x3e, 0xbb, 0x84, 0xba, 0xbd, 0xe1, 0xf9, 0x37, 0xbe,
  0xc8, 0xaf, 0xc3, 0x3d, 0x09, 0x8e, 0x19, 0x3d, 0x1d, 0xa7, 0xa9, 0xbd,
  0xce, 0x8d, 0x45, 0x3d, 0x4b, 0x3b, 0x20, 0x3e, 0xc6, 0x6d, 0x2e, 0x3e,
  0x3b, 0x4a, 0x5a, 0xbe, 0xfe, 0xaa, 0xeb, 0x3d, 0x26, 0xe2, 0xdd, 0x3d,
  0xf7, 0xc1, 0xe6, 0x3d, 0xd2, 0x0a, 0x89, 0xbd, 0xa0, 0xa0, 0x1b, 0xbc,
  0xd0, 0x39, 0x04, 0x3b, 0x75, 0x29, 0xd0, 0x3d, 0x2e, 0xd6, 0xa2, 0xbd,
  0x74, 0x71, 0x4b, 0xbe, 0x0a, 0x5c, 0x23, 0x3e, 0xf8, 0x93, 0x98, 0x3d,
  0x3c, 0x26, 0x4c, 0xbd, 0x06, 0x05, 0xa9, 0xbd, 0x2c, 0x31, 0x07, 0x3e,
  0x18, 0x24, 0x73, 0xbd, 0xee, 0x3a, 0x3c, 0xbe, 0xac, 0x50, 0x17, 0x3e,
  0x25, 0x4f, 0x25, 0x3e, 0xc0, 0x17, 0x0a, 0xbe, 0x1c, 0xce, 0x3c, 0xbd,
  0x08, 0xf9, 0x84, 0x3d, 0x66, 0x4e, 0xdc, 0xbd, 0x47, 0xf6, 0x8a, 0xb7,
  0xb5, 0x09, 0x36, 0xbe, 0x06, 0x77, 0x1b, 0xbd, 0x5b, 0x38, 0x18, 0x3e,
  0x52, 0x43, 0x22, 0x3e, 0x11, 0xbe, 0xfd, 0xba, 0x92, 0xea, 0xff, 0xff,
  0x04, 0x00, 0x00, 0x00, 0x08, 0x00, 0x00, 0x00, 0xff, 0xff, 0xff, 0xff,
  0x6c, 0x00, 0x00, 0x00, 0xa6, 0xea, 0xff, 0xff, 0x04, 0x00, 0x00, 0x00,
  0x0c, 0x00, 0x00, 0x00, 0x64, 0x29, 0x75, 0x39, 0xfa, 0x0b, 0xfb, 0xbb,
  0x94, 0xb3, 0xac, 0x3b, 0xbe, 0xea, 0xff, 0xff, 0x04, 0x00, 0x00, 0x00,
  0x40, 0x00, 0x00, 0x00, 0x99, 0x65, 0x1d, 0x3c, 0x00, 0x00, 0x00, 0x00,
  0x00, 0x00, 0x00, 0x00, 0x23, 0x83, 0xc9, 0x3b, 0x82, 0xc9, 0x02, 0xbc,
  0xf2, 0xc8, 0x82, 0xba, 0x00, 0x00, 0x00, 0x00, 0x00, 0x00, 0x00, 0x00,
  0x5b, 0xfc, 0x8c, 0x3b, 0x5e, 0x47, 0x8d, 0xbb, 0x8a, 0xe2, 0x88, 0xbb,
  0x00, 0x00, 0x00, 0x00, 0xdb, 0xbd, 0x0b, 0xbc, 0x00, 0x00, 0x00, 0x00,
  0x73, 0xed, 0x04, 0x3c, 0x7d, 0xa5, 0xdf, 0x3b, 0x0a, 0xeb, 0xff, 0xff,
  0x04, 0x00, 0x00, 0x00, 0x80, 0x0d, 0x00, 0x00, 0xa2, 0x4b, 0xf0, 0xbd,
  0xe4, 0x25, 0xf0, 0x3d, 0x70, 0x2b, 0xe1, 0xbd, 0x56, 0xda, 0x22, 0xbe,
  0x86, 0xd0, 0x0e, 0x3e, 0x88, 0x22, 0xd9, 0x3d, 0xb0, 0xf6, 0xd7, 0x3d,
  0x09, 0xc6, 0x34, 0xbe, 0x25, 0x7b, 0x02, 0xbe, 0x34, 0xb3, 0xcb, 0xbd,
  0x14, 0x74, 0xc2, 0x3d, 0x8a, 0x59, 0xaf, 0xbd, 0xb8, 0xe8, 0xe8, 0xbc,
  0x08, 0xc3, 0xe0, 0x3d, 0x57, 0x22, 0xbc, 0xbd, 0xaf, 0x74, 0x2c, 0xbe,
  0x38, 0x48, 0xaa, 0xbc, 0xfc, 0x9e, 0x19, 0xbd, 0x59, 0x02, 0x21, 0xbe,
  0xea, 0xc5, 0x8e, 0xbd, 0xd0, 0xf4, 0x31, 0xbc, 0x94, 0x55, 0x01, 0x3e,
  0xc0, 0xcd, 0xc5, 0xbd, 0x38, 0x8a, 0xec, 0x3d, 0xb8, 0x23, 0xb8, 0x3d,
  0xd8, 0x2c, 0xd4, 0x3d, 0xf8, 0xad, 0xc0, 0xbc, 0xfc, 0xd8, 0x84, 0xbd,
  0xa0, 0x2d, 0x5a, 0xbc, 0x1e, 0x54, 0xe8, 0xbd, 0x1c, 0x25, 0xb8, 0xbd,
  0xb6, 0x79, 0x27, 0xbe, 0xb7, 0x8f, 0x12, 0xbe, 0x75, 0x86, 0x00, 0xbe,
  0x36, 0x14, 0x7f, 0xbd, 0xec, 0x11, 0x15, 0x3d, 0x20, 0x25, 0x29, 0xbd,
  0x08, 0xb9, 0x26, 0x3e, 0x89, 0x42, 0x33, 0xbe, 0x0c, 0xde, 0xb7, 0x3d,
  0x60, 0x42, 0x9a, 0x3b, 0x58, 0x0e, 0x3c, 0x3d, 0xde, 0x06, 0x17, 0x3e,
  0xe2, 0x1c, 0x0e, 0x3e, 0x92, 0x34, 0x17, 0x3e, 0xcc, 0x50, 0xbf, 0x3d,
  0xbe, 0x2f, 0x3a, 0xbe, 0x9d, 0xc7, 0xbc, 0xbd, 0x68, 0xc3, 0xa0, 0xbc,
  0x72, 0xf9, 0x1f, 0xbe, 0xee, 0x31, 0x21, 0x3e, 0xbb, 0xb3, 0x37, 0xbe,
  0xb8, 0x96, 0xf4, 0x3c, 0x50, 0xf0, 0x07, 0xbc, 0x80, 0x2c, 0x9d, 0xba,
  0x4c, 0x53, 0xa8, 0xbd, 0xe0, 0x3f, 0x13, 0xbe, 0xc0, 0x6c, 0x32, 0x3c,
  0xc9, 0x79, 0xc8, 0xbd, 0x64, 0xaa, 0x3b, 0xbd, 0x94, 0x30, 0xc7, 0x3d,
  0x90, 0xad, 0x4b, 0x3c, 0x9e, 0xd6, 0x0b, 0x3e, 0x74, 0xf0, 0xc1, 0x3d,
  0x70, 0x63, 0x5c, 0x3c, 0x78, 0x2f, 0xe0, 0x3c, 0xf0, 0x02, 0xf0, 0x3d,
  0x60, 0xf2, 0xb3, 0x3c, 0xda, 0xf3, 0x0e, 0xbe, 0x76, 0xee, 0x17, 0x3e,
  0x9c, 0xbb, 0x20, 0x3e, 0xdd, 0x74, 0x12, 0xbe, 0xd4, 0x34, 0x26, 0xbe,
  0x70, 0xd1, 0xe5, 0xbd, 0x9e, 0xa9, 0x0e, 0xbe, 0xcb, 0xf1, 0xdd, 0x3d,
  0xda, 0x22, 0xc5, 0xbd, 0x0a, 0x66, 0x09, 0x3d, 0x30, 0xb9, 0x54, 0x3c,
  0x30, 0x70, 0xb3, 0xbd, 0x6a, 0xb7, 0x35, 0x3e, 0xea, 0x15, 0xa8, 0xbd,
  0xee, 0xcc, 0xf4, 0xbc, 0x6a, 0x0a, 0x2c, 0xbe, 0x33, 0x16, 0xef, 0xbd,
  0x1f, 0x49, 0x21, 0x3e, 0xab, 0xa0, 0xb0, 0x3d, 0x20, 0x79, 0x16, 0xbc,
  0x9a, 0x1b, 0x2f, 0x3e, 0x8c, 0xdc, 0x15, 0xbe, 0x00, 0xc9, 0x00, 0xbe,
  0x76, 0x92, 0x1b, 0x3c, 0xca, 0xea, 0xf1, 0xbd, 0x1a, 0x46, 0x19, 0xbe,
  0xea, 0x7b, 0xea, 0x3d, 0x9a, 0xd0, 0x74, 0xbd, 0x27, 0xd1, 0x25, 0x3e,
  0x4e, 0xb1, 0x17, 0x3d, 0xea, 0xa7, 0x0d, 0x3e, 0x1a, 0x2c, 0x49, 0xbd,
  0x92, 0x18, 0xe0, 0xbb, 0xc8, 0x04, 0x4d, 0xbd, 0x05, 0x3f, 0xd1, 0x3d,
  0xe8, 0x7a, 0xf1, 0x3d, 0x15, 0xdd, 0x37, 0xbc, 0xe8, 0xa6, 0x31, 0x3e,
  0xe6, 0xb0, 0x05, 0x3e, 0xfa, 0x6e, 0x21, 0x3e, 0xee, 0x0f, 0x18, 0x3e,
  0xa1, 0x62, 0x0c, 0x3e, 0xef, 0x44, 0x07, 0x3e, 0xd0, 0x50, 0x21, 0x3c,
  0x41, 0x63, 0x8e, 0xbd, 0x28, 0x45, 0xae, 0x3d, 0x40, 0x67, 0x14, 0xbe,
  0x33, 0xeb, 0x03, 0x3e, 0x44, 0x51, 0xe8, 0x3d, 0x3f, 0x15, 0x1a, 0x3e,
  0x75, 0x02, 0x03, 0x3e, 0x20, 0x52, 0xf8, 0xbb, 0x27, 0x93, 0x4d, 0xbd,
  0x37, 0xf4, 0xec, 0x3d, 0xad, 0xe3, 0x0a, 0xbe, 0x9a, 0xf6, 0x0f, 0xbd,
  0x63, 0x26, 0x68, 0x3b, 0x99, 0xdb, 0xf6, 0x3d, 0x79, 0xc3, 0x07, 0x3e,
  0x49, 0x47, 0x0a, 0x3e, 0xab, 0x18, 0x42, 0x3c, 0x68, 0xd0, 0x0c, 0x3d,
  0xc0, 0xcf, 0x55, 0xbc, 0xe8, 0x3f, 0x09, 0xbe, 0x30, 0xfb, 0xe6, 0xbd,
  0x56, 0xc7, 0x3c, 0xbd, 0x02, 0xf7, 0xe4, 0xbd, 0x36, 0x14, 0x7d, 0xbd,
  0xa6, 0xe2, 0x48, 0xbd, 0x8f, 0xde, 0x2d, 0x3e, 0x0a, 0x68, 0xcc, 0x3c,
  0x2b, 0x3d, 0xcc, 0x3d, 0xf1, 0xba, 0xdb, 0x3c, 0xe0, 0x26, 0x82, 0xbd,
  0x52, 0xbb, 0xea, 0x3c, 0x5e, 0x45, 0x2d, 0x3e, 0x18, 0xa8, 0xab, 0xbd,
  0x9b, 0x57, 0xba, 0x3d, 0x79, 0x14, 0xd6, 0x3d, 0xce, 0xe4, 0xd3, 0xbd,
  0xf9, 0xab, 0xd3, 0xbd, 0x73, 0x0f, 0x1a, 0x3e, 0xa8, 0xa2, 0xf9, 0x3c,
  0x00, 0x91, 0xf2, 0xba, 0xc9, 0xa9, 0xe9, 0x3c, 0xb2, 0x5f, 0x1d, 0xbe,
  0x52, 0xdb, 0xd6, 0x3d, 0xdc, 0x2e, 0x9c, 0xbd, 0x89, 0x23, 0x25, 0x3e,
  0x38, 0xf0, 0x31, 0xbe, 0x78, 0x67, 0x13, 0xbd, 0x80, 0xd6, 0x4f, 0x3d,
  0x0a, 0x28, 0x3f, 0xbe, 0x4c, 0x15, 0xab, 0x3d, 0x0a, 0x80, 0xa3, 0xbd,
  0x06, 0xb8, 0xcf, 0x3d, 0xcc, 0xb4, 0x25, 0xbe, 0x5c, 0x0c, 0xe0, 0xbd,
  0x90, 0x71, 0xb4, 0x3d, 0xc9, 0xdc, 0xc6, 0xbc, 0xc5, 0x01, 0x04, 0xbe,
  0x60, 0x6c, 0x04, 0xbd, 0x1b, 0xf1, 0xb4, 0xbc, 0xee, 0xd5, 0x85, 0x3d,
  0x29, 0x54, 0x65, 0xbd, 0xb6, 0x50, 0xb8, 0xbd, 0xb4, 0xb5, 0xb7, 0xbb,
  0x13, 0x74, 0x0e, 0xbe, 0xf5, 0xdb, 0xd5, 0xbc, 0x4b, 0xdb, 0xe2, 0x3c,
  0x75, 0xef, 0x01, 0x3e, 0x47, 0xcf, 0x24, 0xbd, 0xc3, 0x1f, 0xe7, 0x3d,
  0xa8, 0x3a, 0x41, 0x3c, 0x01, 0x0d, 0x20, 0x3e, 0x3a, 0xe9, 0x82, 0x3d,
  0x15, 0x9e, 0xcd, 0xbd, 0xe9, 0x37, 0x34, 0xbe, 0xe0, 0x26, 0x00, 0xbd,
  0xbc, 0xd3, 0xcb, 0xbc, 0x46, 0x83, 0xdb, 0xbd, 0x61, 0xfc, 0x23, 0xbc,
  0xb4, 0x7c, 0xc5, 0x3d, 0xb6, 0xbf, 0x3a, 0x3c, 0x48, 0xa7, 0xc9, 0xbd,
  0x31, 0x68, 0xff, 0x3d, 0x59, 0x78, 0x16, 0xbe, 0x8f, 0x04, 0xab, 0x3d,
  0x3a, 0xb9, 0x3d, 0xbd, 0x6d, 0x79, 0xa4, 0xbc, 0xc0, 0x8f, 0xca, 0xbd,
  0x9c, 0x13, 0xbe, 0x3d, 0xd5, 0x3f, 0x13, 0x3e, 0x89, 0xb2, 0x91, 0xbd,
  0x14, 0xb7, 0x2d, 0x3e, 0xd9, 0x0f, 0x83, 0xbd, 0x4b, 0x4f, 0x11, 0x3e,
  0xf1, 0x84, 0x19, 0xbe, 0x2f, 0x84, 0x9f, 0x3b, 0xe5, 0x61, 0x1b, 0x3e,
  0xb0, 0x69, 0x44, 0xbe, 0xb2, 0xc7, 0xa0, 0xbd, 0x4d, 0xf6, 0x2b, 0x3e,
  0xd9, 0xef, 0xdc, 0xbd, 0x54, 0x2e, 0xff, 0xbd, 0x0c, 0x6f, 0x06, 0x3e,
  0x01, 0x8f, 0x61, 0x3d, 0xb7, 0x05, 0x17, 0x3c, 0x6c, 0x57, 0x3a, 0x3e,
  0x35, 0x7e, 0x08, 0x3e, 0xac, 0xe2, 0x32, 0xbe, 0x0d, 0x81, 0x6a, 0xbc,
  0x3f, 0x31, 0x24, 0xbe, 0x63, 0x19, 0x5d, 0xbd, 0x9c, 0x08, 0x29, 0xbe,
  0x73, 0x1e, 0xcb, 0xbd, 0x70, 0x7b, 0x09, 0xbe, 0xb9, 0xa9, 0x49, 0x3e,
  0x23, 0x75, 0x8b, 0x3d, 0x92, 0xc0, 0x11, 0x3e, 0x60, 0xc0, 0x35, 0xbe,
  0x55, 0xaf, 0x4a, 0x3e, 0x44, 0x7d, 0xc4, 0xbc, 0x7f, 0x4b, 0xc9, 0xbd,
  0x1a, 0xba, 0x21, 0x3e, 0xef, 0xca, 0x3a, 0x3e, 0x0c, 0xc4, 0x13, 0x3d,
  0xce, 0x34, 0x5b, 0x3d, 0xcf, 0x10, 0x33, 0xbd, 0xe2, 0xde, 0x27, 0x3e,
  0x64, 0x92, 0x8c, 0xbd, 0x92, 0x0f, 0xaf, 0xbd, 0xe4, 0x24, 0x00, 0x3c,
  0x2a, 0x49, 0xc5, 0x3d, 0x3e, 0xde, 0x4e, 0xbc, 0x06, 0xb5, 0xa7, 0x3c,
  0x11, 0x7a, 0x39, 0xbe, 0xc0, 0x88, 0x8d, 0xbd, 0xb9, 0x0a, 0x96, 0xbd,
  0x4b, 0xb1, 0xef, 0x3c, 0x5d, 0xc9, 0xff, 0xbd, 0x03, 0xb3, 0xd5, 0xbd,
  0xa1, 0xfa, 0x04, 0xbe, 0xbc, 0xe3, 0xc2, 0x3d, 0x16, 0xd7, 0xcf, 0xbd,
  0x11, 0x65, 0xfb, 0x3d, 0x28, 0x78, 0xde, 0x3d, 0xc0, 0x8b, 0x0b, 0xbd,
  0x0a, 0xbf, 0x13, 0x3d, 0xc7, 0x6a, 0xbe, 0x3d, 0x6e, 0x64, 0x99, 0xbc,
  0x6a, 0xf0, 0x25, 0x3e, 0x52, 0x9c, 0xf0, 0x3d, 0x77, 0x8c, 0x01, 0xbe,
  0x51, 0xdd, 0xa3, 0xbd, 0x16, 0x09, 0xfa, 0x3c, 0xc6, 0x90, 0x4b, 0x3e,
  0x2f, 0x31, 0x01, 0x3c, 0x4c, 0x47, 0x0c, 0x39, 0x7c, 0x87, 0xbb, 0x3d,
  0x70, 0xa4, 0x39, 0xbe, 0x5e, 0xab, 0x07, 0x3e, 0x24, 0x8a, 0x0d, 0xbe,
  0x0c, 0x2e, 0xf6, 0xbc, 0x26, 0xe7, 0x72, 0xbc, 0x2c, 0xb5, 0x39, 0x3e,
  0xe8, 0x8d, 0x2d, 0xbd, 0x09, 0x08, 0xab, 0xbd, 0x1a, 0x7e, 0x7c, 0x3c,
  0x78, 0xd5, 0x1b, 0x3a, 0xb8, 0xc2, 0xe4, 0x3d, 0xd8, 0xa5, 0x40, 0xbe,
  0x84, 0x4f, 0x25, 0xbe, 0xd5, 0x47, 0x37, 0x3e, 0x1c, 0x25, 0xf8, 0xbd,
  0x42, 0x67, 0x28, 0x3e, 0xa0, 0x61, 0xbb, 0x3c, 0xcd, 0x61, 0xfe, 0x3d,
  0xce, 0x5e, 0x44, 0x3d, 0x98, 0xef, 0x71, 0x3d, 0xf7, 0x75, 0x22, 0xbe,
  0x3d, 0xbe, 0x24, 0xbe, 0x5e, 0xea, 0x01, 0xbd, 0xcc, 0x0e, 0x19, 0x3e,
  0x70, 0x69, 0xf4, 0xbd, 0xbc, 0x90, 0x13, 0x3d, 0x32, 0xc5, 0x88, 0xbd,
  0xbc, 0xd8, 0x2c, 0x3e, 0x56, 0xbc, 0xe7, 0x3d, 0x3a, 0x03, 0xc4, 0x3d,
  0x5a, 0x7a, 0x9d, 0x3d, 0x65, 0xdf, 0xda, 0x3d, 0xa8, 0x94, 0xc6, 0x3d,
  0xcb, 0xbd, 0x47, 0x3c, 0xeb, 0xcb, 0xc0, 0x3d, 0xb0, 0xf5, 0xe2, 0xbc,
  0x1f, 0x08, 0x82, 0xbd, 0xf9, 0x62, 0x12, 0x3e, 0x83, 0xfe, 0xd6, 0x3d,
  0x5d, 0x7d, 0x92, 0xbb, 0x2e, 0x37, 0x2e, 0xbd, 0x22, 0x23, 0x4a, 0x3d,
  0x20, 0xc5, 0x67, 0x3d, 0x98, 0x2f, 0xdf, 0xbc, 0x33, 0xe4, 0x61, 0xbd,
  0x37, 0xcf, 0x2d, 0xbe, 0x73, 0x9c, 0x90, 0x3d, 0x9b, 0x97, 0x82, 0x3d,
  0x12, 0xa1, 0x47, 0xbe, 0xbd, 0xa3, 0xf9, 0x3d, 0x6f, 0x7c, 0xfd, 0xbd,
  0x29, 0x0e, 0xc1, 0xbd, 0xcc, 0x18, 0x1c, 0xbd, 0x48, 0x58, 0xb0, 0x3d,
  0x3f, 0xf1, 0xe1, 0xbd, 0x0f, 0xb8, 0x2c, 0xbe, 0x0c, 0x0f, 0xcc, 0x3c,
  0xb3, 0xfd, 0xc8, 0xbd, 0xbe, 0xd2, 0xd0, 0x3d, 0xa0, 0xc0, 0x4c, 0x3c,
  0x42, 0xfe, 0xd8, 0xbb, 0x79, 0x0e, 0x62, 0x3d, 0x1b, 0xcd, 0x93, 0xbd,
  0xb6, 0x88, 0x4b, 0x3e, 0x2e, 0x68, 0xdd, 0x3c, 0xb0, 0x04, 0x81, 0xbc,
  0x04, 0xd4, 0x11, 0xbe, 0xdc, 0x78, 0xb8, 0x3d, 0x00, 0x21, 0xa2, 0x3d,
  0x6e, 0x21, 0x06, 0xbe, 0xa7, 0x30, 0xde, 0xbd, 0xef, 0x9e, 0x83, 0x3d,
  0xf5, 0xc3, 0x38, 0x3e, 0x30, 0xf3, 0x48, 0xbd, 0xa1, 0xd9, 0xa4, 0x3c,
  0x64, 0x97, 0xf8, 0x3c, 0x47, 0xef, 0x31, 0x3e, 0x73, 0x36, 0xe8, 0x3c,
  0xb9, 0xfc, 0x9d, 0xbd, 0x71, 0x3b, 0x31, 0xbd, 0x81, 0xf0, 0x5f, 0x3d,
  0xd2, 0xea, 0xf3, 0xbd, 0x28, 0x42, 0x2e, 0x3e, 0x5f, 0xe8, 0x70, 0xbd,
  0x21, 0x93, 0xfb, 0x3d, 0x12, 0xed, 0x40, 0xba, 0x70, 0xe9, 0x94, 0x3d,
  0xaf, 0x34, 0x1c, 0xbe, 0x4e, 0xcd, 0x17, 0x3e, 0x44, 0x9b, 0x81, 0xbd,
  0xdd, 0x79, 0x69, 0x3d, 0xac, 0x81, 0x06, 0xbd, 0x55, 0x9e, 0x2b, 0x3c,
  0x23, 0x62, 0x13, 0xbe, 0x9d, 0xb0, 0x86, 0x3d, 0xac, 0x90, 0x54, 0x3c,
  0x92, 0x40, 0xa3, 0xbd, 0x5e, 0x22, 0xae, 0x3d, 0x1a, 0xa2, 0x03, 0x3e,
  0x3c, 0x0b, 0x7a, 0x3d, 0x08, 0x33, 0x00, 0xbd, 0xa4, 0x16, 0x4c, 0x3c,
  0xcc, 0xb1, 0xe6, 0xbd, 0xbe, 0x90, 0xb4, 0xbd, 0x82, 0xa1, 0x0f, 0x3e,
  0x89, 0x2c, 0x26, 0x3d, 0x3f, 0x6f, 0x22, 0x3e, 0x22, 0x9a, 0x28, 0xbe,
  0x4c, 0x69, 0x6e, 0xbd, 0x30, 0x27, 0x33, 0xbe, 0x69, 0xd7, 0xa5, 0x3d,
  0xf6, 0xaa, 0x6e, 0x3d, 0x4e, 0x52, 0xba, 0x3d, 0x88, 0x7e, 0xaa, 0xbd,
  0x1d, 0x86, 0x13, 0x3d, 0xe4, 0x98, 0x04, 0x3e, 0xee, 0x7a, 0xcb, 0x3d,
  0xa6, 0xa1, 0xc8, 0x3d, 0x39, 0xdc, 0x94, 0xbd, 0xde, 0xf4, 0x81, 0xbd,
  0xc4, 0x86, 0xae, 0xbd, 0xdb, 0x09, 0x20, 0x3e, 0x53, 0x91, 0x3a, 0xbe,
  0x4d, 0x78, 0x10, 0x3e, 0x4a, 0xc4, 0xbd, 0x3d, 0xd0, 0x11, 0x09, 0xbd,
  0x97, 0x48, 0xb8, 0xbd, 0xbb, 0xb8, 0xd7, 0xbc, 0x6d, 0xcb, 0x63, 0x3e,
  0x0d, 0xe1, 0xf1, 0x39, 0xc3, 0xbc, 0xe8, 0x3d, 0x0b, 0x64, 0x2e, 0xbe,
  0x2d, 0x61, 0x05, 0x3c, 0x37, 0xef, 0xc9, 0xbd, 0x7f, 0xf9, 0x29, 0xbd,
  0x16, 0xf4, 0xcc, 0xbd, 0x9f, 0x12, 0x35, 0x3d, 0x08, 0xb2, 0x04, 0x3e,
  0xcc, 0x8c, 0x4b, 0x3d, 0x60, 0x5b, 0x40, 0x3c, 0x02, 0x51, 0x35, 0x3e,
  0xc1, 0x9c, 0xd1, 0x3d, 0xc9, 0x48, 0xf9, 0xbd, 0x13, 0x6a, 0xcb, 0x3d,
  0x43, 0x0f, 0x86, 0xbd, 0xf5, 0xf2, 0xce, 0x3d, 0x93, 0x6f, 0xa1, 0x3c,
  0x75, 0x4b, 0xd6, 0xbc, 0x2b, 0x18, 0x33, 0xbe, 0xfa, 0x38, 0x1d, 0x3d,
  0xb6, 0xc5, 0x80, 0x3c, 0x21, 0xb7, 0xcf, 0x3d, 0xfc, 0x99, 0x16, 0xbb,
  0xc6, 0x69, 0x60, 0x3d, 0xc2, 0xa7, 0x5d, 0x3d, 0x7a, 0xca, 0xc0, 0x3d,
  0xbc, 0xa1, 0x5b, 0xbd, 0xb7, 0xc0, 0xec, 0x3d, 0xff, 0x90, 0xad, 0x3d,
  0xfb, 0x1f, 0xd1, 0xbd, 0x10, 0xb0, 0x22, 0xbc, 0x99, 0xd6, 0x1b, 0x3e,
  0xa7, 0x42, 0xee, 0x3d, 0xe0, 0xd7, 0x81, 0x3b, 0x45, 0xd0, 0x03, 0xbe,
  0x44, 0xe9, 0x23, 0xbe, 0x10, 0x29, 0xb0, 0x3d, 0x63, 0x5c, 0xd4, 0x3d,
  0xeb, 0x76, 0xb4, 0x3d, 0xbb, 0x1e, 0x25, 0x3c, 0x3f, 0x5f, 0x44, 0xb9,
  0x29, 0x37, 0x86, 0xbd, 0xb1, 0x01, 0xae, 0xbd, 0xb1, 0x3b, 0x0e, 0xbe,
  0xb4, 0x00, 0xbc, 0xbd, 0x19, 0x25, 0x12, 0xbe, 0x9b, 0xf8, 0x95, 0xbc,
  0x03, 0x38, 0x45, 0x3d, 0x04, 0xd8, 0xca, 0x3c, 0x8f, 0x4b, 0xa8, 0xbc,
  0x0f, 0x61, 0xf8, 0x3d, 0xde, 0xc1, 0x06, 0xbe, 0xce, 0xe8, 0xf6, 0x3d,
  0xbd, 0x93, 0x0f, 0x3d, 0x27, 0x00, 0xea, 0xbd, 0x1c, 0x1d, 0x05, 0xbe,
  0xe4, 0x57, 0x13, 0x3e, 0xe5, 0xec, 0x1d, 0x3e, 0x93, 0x44, 0x7d, 0x3d,
  0x5b, 0x41, 0x33, 0x3e, 0x5c, 0xd0, 0x62, 0xbc, 0xce, 0xa5, 0x4e, 0xba,
  0x57, 0xd3, 0x1e, 0x3d, 0xeb, 0xbd, 0x5e, 0xbb, 0x84, 0xf8, 0xdc, 0x3d,
  0xd2, 0x0f, 0xa8, 0x3d, 0x84, 0xc8, 0x94, 0xbd, 0xff, 0x3b, 0xfb, 0xbd,
  0x95, 0xe8, 0x16, 0xbe, 0x4f, 0x00, 0x90, 0x3a, 0x07, 0x0d, 0x4b, 0x3e,
  0x20, 0xed, 0x52, 0xbd, 0x6c, 0x56, 0x0d, 0xbe, 0xc3, 0x5a, 0xee, 0x3d,
  0xea, 0xa5, 0x01, 0x3d, 0x8a, 0x03, 0x8a, 0x3d, 0x7f, 0x58, 0xb9, 0x3d,
  0x2a, 0xdb, 0xb4, 0x3c, 0xb9, 0xd4, 0x8f, 0x3d, 0x0f, 0xe5, 0x58, 0xbe,
  0x65, 0x9f, 0x17, 0xbd, 0xb8, 0x89, 0x8b, 0xbd, 0x89, 0x38, 0x5d, 0x3d,
  0xb5, 0x5f, 0x49, 0x3e, 0x3f, 0xeb, 0x4b, 0x3e, 0x2c, 0x7f, 0x2e, 0x3e,
  0x83, 0xff, 0x5f, 0x3d, 0x14, 0x91, 0x1c, 0xbe, 0x6c, 0x3d, 0xf8, 0xbd,
  0x5c, 0x25, 0xd6, 0x3d, 0x01, 0x72, 0xd5, 0xbd, 0x9a, 0x3b, 0xde, 0x3d,
  0x61, 0xda, 0x39, 0x3e, 0x10, 0x46, 0xed, 0xbd, 0xe4, 0x23, 0x37, 0x3e,
  0x7c, 0xf6, 0xdf, 0xbc, 0xa3, 0x5b, 0xec, 0x3d, 0xdb, 0xf9, 0x1d, 0xbe,
  0x2f, 0x83, 0xb7, 0x3d, 0x96, 0xe8, 0x00, 0xbd, 0xd1, 0x96, 0x91, 0xbd,
  0x9b, 0xa7, 0x1e, 0xbe, 0xdc, 0xc8, 0x20, 0x3c, 0xc2, 0xeb, 0x01, 0x3d,
  0x72, 0xaf, 0x18, 0xbe, 0x7d, 0x5c, 0x32, 0x3d, 0x10, 0x82, 0x14, 0xbd,
  0xc8, 0x31, 0xad, 0x3c, 0xc8, 0xde, 0xb5, 0x3c, 0xe8, 0x3a, 0xf0, 0x3d,
  0xd8, 0x47, 0xcf, 0x3d, 0x80, 0xda, 0x37, 0xbc, 0x18, 0x60, 0x27, 0xbe,
  0x9c, 0xe0, 0x18, 0xbd, 0x3f, 0x6e, 0x84, 0xbd, 0xaa, 0xbe, 0x7a, 0xbd,
  0x34, 0x33, 0x66, 0xbd, 0xa0, 0xcd, 0xf6, 0x3b, 0xa8, 0xaf, 0xb3, 0xbc,
  0x20, 0x54, 0x1f, 0xbd, 0xf0, 0x44, 0x12, 0xbe, 0x04, 0xcc, 0x1e, 0xbd,
  0x2e, 0x5f, 0x87, 0xbd, 0x7c, 0xfc, 0x24, 0xbd, 0x78, 0x2c, 0xc2, 0x3d,
  0x82, 0xf5, 0x1f, 0x3e, 0xb0, 0xfb, 0x81, 0xbc, 0xe0, 0xa2, 0xd9, 0xbc,
  0x5d, 0x1a, 0x35, 0xbe, 0x2e, 0xeb, 0x09, 0x3e, 0x42, 0xa7, 0x21, 0x3e,
  0x03, 0x40, 0x81, 0xbd, 0x50, 0x2a, 0xfe, 0x3d, 0x5b, 0x25, 0x9d, 0xbd,
  0xa8, 0xb8, 0xa7, 0x3d, 0xfa, 0xc6, 0x32, 0x3e, 0xae, 0x20, 0x83, 0x3d,
  0xdf, 0x60, 0x04, 0xbe, 0xe3, 0x7e, 0xcf, 0xbd, 0x0f, 0xd6, 0x2d, 0xbe,
  0x29, 0x22, 0xb3, 0xbd, 0x88, 0x20, 0x8c, 0x3c, 0x40, 0x7f, 0x16, 0x3e,
  0xfc, 0xd7, 0x97, 0xbd, 0x70, 0x18, 0xa3, 0x3d, 0xc0, 0xf3, 0x81, 0xbc,
  0x84, 0x8c, 0x14, 0xbd, 0x38, 0x64, 0x88, 0x3d, 0xb3, 0x10, 0xee, 0xbd,
  0xe7, 0x4c, 0xe3, 0xbd, 0x88, 0xba, 0xd6, 0xbd, 0xa0, 0xf0, 0xca, 0x3d,
  0x8b, 0xec, 0xeb, 0xbd, 0x88, 0x86, 0x23, 0xbd, 0x2c, 0x5e, 0x28, 0x3e,
  0x14, 0x99, 0x56, 0x3d, 0x28, 0x17, 0xe6, 0x3d, 0x20, 0x34, 0xe2, 0x3d,
  0xa2, 0xaf, 0x1d, 0x3e, 0x04, 0xa6, 0xa3, 0x3d, 0xb6, 0xaa, 0x1a, 0x3e,
  0xe0, 0x18, 0x6a, 0x3c, 0x08, 0xdf, 0x81, 0x3d, 0xf6, 0x25, 0x21, 0xbe,
  0xa8, 0x59, 0xdb, 0xbd, 0x88, 0x96, 0xe0, 0xbc, 0x44, 0x64, 0x6c, 0xbd,
  0xc0, 0xda, 0xb8, 0x3d, 0x62, 0xfe, 0x09, 0xbe, 0xd6, 0xa6, 0xb7, 0xbd,
  0xa8, 0x9b, 0xac, 0x3d, 0x3c, 0x2d, 0xb2, 0x3d, 0x33, 0x7b, 0x16, 0xbe,
  0x6a, 0xe0, 0x1d, 0xbe, 0xb5, 0x18, 0x38, 0xbe, 0xd0, 0x45, 0x20, 0x3e,
  0xcb, 0x46, 0x34, 0xbe, 0x6c, 0xcc, 0x36, 0x3e, 0x10, 0x81, 0x29, 0xbe,
  0xc5, 0x20, 0x11, 0x3e, 0x0e, 0x73, 0x17, 0xbe, 0x06, 0x8b, 0xee, 0x3d,
  0x87, 0x63, 0x10, 0xbe, 0xc8, 0xdb, 0xa5, 0x3d, 0x38, 0x57, 0x0c, 0xbe,
  0xbe, 0xc9, 0x14, 0x3e, 0x81, 0xb7, 0x46, 0x3e, 0x40, 0x32, 0x60, 0xbd,
  0x19, 0xd3, 0x38, 0xbe, 0x5f, 0xc6, 0xae, 0x3d, 0x1f, 0xb7, 0x96, 0xbd,
  0x1a, 0x8a, 0xd2, 0xbc, 0x4c, 0x24, 0x2f, 0x3d, 0x22, 0x53, 0xab, 0xbb,
  0xa7, 0x34, 0x20, 0xbe, 0x1b, 0xdc, 0x87, 0xbd, 0x51, 0x79, 0x3b, 0x3e,
  0x17, 0x4d, 0x20, 0xbe, 0x4d, 0x3f, 0x59, 0x3e, 0x3b, 0x91, 0x73, 0xbd,
  0xcf, 0xc5, 0xb2, 0x3d, 0x64, 0xd3, 0xcf, 0x3d, 0x3b, 0x7a, 0x12, 0x3d,
  0x2d, 0x34, 0x40, 0xbe, 0x81, 0xad, 0x18, 0x3e, 0xc8, 0x14, 0x1c, 0x3d,
  0x6c, 0xe1, 0x16, 0x3e, 0x3b, 0x91, 0xb1, 0x3d, 0xb3, 0x78, 0x15, 0x3e,
  0x85, 0xea, 0x9f, 0xbd, 0x0e, 0x1f, 0x00, 0x3e, 0x55, 0x84, 0x21, 0xbe,
  0x39, 0x44, 0xf4, 0x3d, 0xc1, 0x5c, 0x63, 0xbd, 0x74, 0x80, 0x02, 0x3e,
  0x1d, 0x30, 0x17, 0x3d, 0xf7, 0xa8, 0x95, 0xbd, 0x50, 0xcf, 0x25, 0xbd,
  0xcc, 0x4f, 0x40, 0x3e, 0x01, 0xde, 0x09, 0xbe, 0x1d, 0x71, 0x03, 0x3e,
  0x8d, 0x1c, 0x37, 0xbe, 0x21, 0xf0, 0x08, 0x3e, 0xc4, 0xcb, 0x85, 0xbd,
  0x4b, 0x61, 0x53, 0x3d, 0xa7, 0xe0, 0xa5, 0xbd, 0x8b, 0x9e, 0x51, 0x3d,
  0x9c, 0xae, 0x2e, 0xbe, 0x22, 0x27, 0x38, 0xbe, 0xcf, 0x72, 0x96, 0x3d,
  0xcd, 0x05, 0x83, 0xbd, 0xc2, 0x8b, 0x0f, 0xbe, 0x30, 0x40, 0x27, 0xbe,
  0xa6, 0x85, 0x0e, 0xbe, 0x56, 0x87, 0x27, 0xbe, 0x6b, 0x6a, 0x1b, 0xbd,
  0x00, 0xd0, 0x19, 0xbd, 0x00, 0xd0, 0x0c, 0x3e, 0x41, 0xd4, 0x70, 0x3d,
  0x31, 0xac, 0x38, 0xbe, 0x93, 0x9f, 0x75, 0xbd, 0x39, 0x0a, 0xca, 0xbd,
  0x36, 0x55, 0xf0, 0xbc, 0x18, 0xcc, 0x79, 0xbd, 0x0d, 0xb3, 0x02, 0x3e,
  0x88, 0x94, 0x50, 0xbd, 0x2e, 0xce, 0x16, 0x3d, 0x6a, 0xa6, 0x0d, 0xbc,
  0x1a, 0xd1, 0xef, 0x3c, 0x28, 0x96, 0xb7, 0xbd, 0xef, 0x8b, 0x85, 0xbd,
  0xf5, 0x07, 0xe1, 0x3d, 0x78, 0x73, 0xec, 0xbd, 0xf1, 0x7b, 0x3d, 0xbe,
  0x5e, 0xf8, 0xef, 0xbd, 0x1c, 0x69, 0xf6, 0xbd, 0x27, 0x63, 0x2f, 0x3e,
  0x34, 0xc6, 0xad, 0x3d, 0x8f, 0xa7, 0x23, 0x3d, 0x76, 0x90, 0xd8, 0x3c,
  0xf0, 0x9d, 0x9f, 0xbc, 0x04, 0xf2, 0x8b, 0x3c, 0x79, 0x82, 0xe7, 0xbd,
  0x48, 0x06, 0x30, 0x3e, 0xd7, 0x35, 0x1a, 0x3e, 0x40, 0xa4, 0x0a, 0x3e,
  0xf3, 0xda, 0x36, 0xbd, 0x27, 0x0f, 0x3d, 0xbc, 0x9d, 0x5b, 0x38, 0xbe,
  0x2f, 0xec, 0x25, 0x3e, 0xf0, 0x40, 0xaf, 0x3d, 0xb9, 0xd1, 0xb8, 0xbd,
  0xab, 0x0e, 0xe2, 0x3c, 0xb0, 0x5b, 0x41, 0xbc, 0xab, 0xd4, 0x95, 0xbd,
  0xc0, 0x0e, 0x9f, 0xbc, 0xe4, 0x97, 0xf2, 0xbd, 0x40, 0x55, 0xdb, 0xbc,
  0x53, 0xf6, 0x3f, 0x3d, 0xba, 0x77, 0x03, 0x3c, 0x89, 0x45, 0x99, 0x3c,
  0x77, 0x91, 0xbe, 0x3d, 0x43, 0xa5, 0xd8, 0xbd, 0x1d, 0xee, 0xb9, 0xbd,
  0xf3, 0x95, 0x7a, 0xbd, 0x04, 0xc9, 0x1c, 0xbe, 0xf4, 0xe1, 0x36, 0xbd,
  0x4c, 0xa5, 0x0f, 0x3d, 0x03, 0x18, 0xe7, 0x3c, 0x41, 0xeb, 0xac, 0xbd,
  0xc1, 0x83, 0x45, 0x3d, 0xd7, 0x21, 0x97, 0x3d, 0x44, 0xf2, 0x66, 0x3d,
  0xff, 0x15, 0x15, 0xbe, 0x0a, 0x61, 0x2b, 0xbd, 0x2e, 0x7b, 0x14, 0x3e,
  0x34, 0x9c, 0x2d, 0x3d, 0x90, 0x6f, 0xce, 0x3c, 0x99, 0xde, 0x12, 0x3e,
  0xed, 0x9b, 0x04, 0xbc, 0x66, 0xd0, 0xfe, 0x3d, 0x31, 0x84, 0x1b, 0xbe,
  0x18, 0x4c, 0xc6, 0x3c, 0xc1, 0x99, 0xa3, 0xbd, 0x33, 0x95, 0x20, 0xbe,
  0xf8, 0xfc, 0x61, 0x3d, 0x7e, 0xd3, 0xa6, 0xbd, 0x12, 0x3a, 0xb6, 0xbd,
  0x54, 0x93, 0x15, 0x3e, 0x02, 0x9e, 0x26, 0xbe, 0x56, 0xd3, 0x0f, 0x3d,
  0xe1, 0xa6, 0x20, 0x3e, 0xaa, 0xe1, 0xf6, 0xbd, 0x49, 0x61, 0xd7, 0xbd,
  0xdd, 0xdc, 0x1c, 0x3e, 0x93, 0x19, 0x28, 0x3e, 0x54, 0xa3, 0x07, 0xbe,
  0x75, 0xf0, 0x6a, 0x3d, 0x97, 0x13, 0x81, 0x3d, 0xd5, 0x27, 0xb0, 0xbd,
  0x9c, 0x42, 0x00, 0xbe, 0x60, 0x61, 0xfe, 0x3c, 0xec, 0x16, 0x17, 0xbd,
  0x77, 0x66, 0x8e, 0x3b, 0x2d, 0xfb, 0x9b, 0xbd, 0x45, 0xc6, 0x2e, 0xbe,
  0xb4, 0xa7, 0x7a, 0x3e, 0xb5, 0xd8, 0xc1, 0xbd, 0x00, 0x75, 0x21, 0xbe,
  0xbf, 0xda, 0x1c, 0xbe, 0x4c, 0x81, 0xfa, 0x3d, 0x4e, 0x40, 0xaa, 0x3d,
  0x18, 0x9e, 0x3a, 0x3e, 0xd2, 0x4a, 0xa8, 0x3c, 0x4d, 0xdc, 0xe1, 0x3d,
  0x27, 0x06, 0xe2, 0x3d, 0x25, 0x70, 0xc2, 0xbd, 0x8c, 0x0a, 0xc8, 0x3d,
  0xdf, 0x46, 0x20, 0x3e, 0xaf, 0xcd, 0xbd, 0x3d, 0xfe, 0x41, 0x9b, 0xbc,
  0xd3, 0x8e, 0x65, 0x3d, 0x12, 0xb9, 0x89, 0x3d, 0x67, 0x8a, 0xc9, 0x3d,
  0x1d, 0x9c, 0x68, 0xbc, 0x60, 0xa3, 0x72, 0x3c, 0xac, 0xb3, 0xdb, 0x3d,
  0xd7, 0x54, 0xca, 0xbd, 0xba, 0xae, 0x94, 0x3d, 0x14, 0x57, 0x21, 0x3d,
  0x8a, 0x73, 0x1e, 0x3e, 0xb1, 0xc6, 0x00, 0x3e, 0xe2, 0xc5, 0x27, 0xbd,
  0xf1, 0x4e, 0x0f, 0xbe, 0xfc, 0x6d, 0x3c, 0x3d, 0x52, 0xc5, 0x36, 0x3d,
  0x76, 0xa4, 0x2f, 0x3d, 0x47, 0x67, 0x5b, 0xbd, 0x7b, 0xbc, 0x01, 0x3e,
  0x22, 0xad, 0xc9, 0x3d, 0xd8, 0x58, 0xd3, 0x3d, 0x14, 0x93, 0x12, 0xbe,
  0xd3, 0xf8, 0x6c, 0x3d, 0xf4, 0xf9, 0x81, 0xbd, 0x9f, 0x36, 0x33, 0xbe,
  0xb9, 0x8a, 0x2a, 0x3e, 0x5e, 0xde, 0x7f, 0x3d, 0xbb, 0xf5, 0x15, 0xbe,
  0x65, 0x5c, 0xbc, 0xbc, 0x99, 0x52, 0x4e, 0xbd, 0x09, 0x55, 0x89, 0x3d,
  0x33, 0x67, 0xe3, 0x3d, 0xd6, 0xe1, 0x14, 0x3e, 0x9b, 0xfc, 0xa6, 0xbd,
  0x87, 0xcf, 0x31, 0x3e, 0x0e, 0xcf, 0x44, 0x3c, 0xa8, 0x4e, 0xe6, 0x3d,
  0xc8, 0x0f, 0xd7, 0x3c, 0x82, 0x08, 0x74, 0xbc, 0xc7, 0xdf, 0x77, 0xbd,
  0x83, 0xbf, 0x20, 0xbe, 0xe9, 0x90, 0xec, 0xbd, 0x64, 0x3d, 0x03, 0x3e,
  0xd0, 0x1b, 0x7c, 0x3a, 0x0d, 0x19, 0x01, 0x3d, 0x22, 0x61, 0x22, 0xbe,
  0xfd, 0xb5, 0x0b, 0x3e, 0x9c, 0x61, 0x24, 0x3e, 0x4f, 0x67, 0xb8, 0xbd,
  0xe6, 0x73, 0x49, 0xbd, 0x0c, 0x00, 0x1d, 0x3e, 0x0f, 0xda, 0x52, 0xbe,
  0x99, 0xd1, 0x11, 0xbe, 0xa0, 0xf3, 0x30, 0xbd, 0x0b, 0x07, 0x98, 0x3d,
  0xb9, 0xa6, 0x20, 0x3e, 0x54, 0x08, 0x12, 0x3e, 0xbc, 0xc6, 0x05, 0xbd,
  0x87, 0x36, 0xae, 0xbd, 0xb3, 0x71, 0x56, 0x3d, 0x65, 0xa4, 0x43, 0xbe,
  0x5a, 0xe7, 0x0b, 0xbe, 0xe2, 0xf3, 0x19, 0x3e, 0xfb, 0xcf, 0x11, 0x3e,
  0x9b, 0xc1, 0x2c, 0xbc, 0x54, 0xcc, 0x08, 0xbe, 0x1c, 0x7e, 0xd0, 0xbd,
  0xed, 0xae, 0x6f, 0xbd, 0xa3, 0xd0, 0x2d, 0x3d, 0x0d, 0xcc, 0xc6, 0xbd,
  0xf7, 0x3a, 0xd6, 0xbd, 0x0d, 0xc0, 0xa4, 0x3d, 0x3f, 0x82, 0x32, 0x3e,
  0x6a, 0x98, 0xbd, 0xbd, 0xd4, 0x07, 0x10, 0x3e, 0xd2, 0xc5, 0x17, 0x3e,
  0xd2, 0xba, 0x25, 0x3d, 0x91, 0xb9, 0x1f, 0xbe, 0x68, 0xaf, 0x34, 0x3d,
  0xac, 0x71, 0x9c, 0x3c, 0x02, 0x4b, 0x6a, 0xbd, 0x52, 0x33, 0xb6, 0xbd,
  0x17, 0x73, 0x61, 0x3d, 0x53, 0xaf, 0xa5, 0x3d, 0x86, 0xf4, 0xff, 0x3d,
  0x30, 0x56, 0x2c, 0x3e, 0xc8, 0x1a, 0x69, 0x3d, 0x57, 0x95, 0x8e, 0xbc,
  0xa7, 0x1c, 0x1d, 0x3e, 0xa2, 0x04, 0x9c, 0xbd, 0xb6, 0x10, 0xf5, 0x3a,
  0xcd, 0xba, 0xec, 0xbd, 0xdb, 0x0d, 0x36, 0xbe, 0xdf, 0x12, 0x9d, 0x3d,
  0xd4, 0xe3, 0xe3, 0xbd, 0xa7, 0x7a, 0xbe, 0x3d, 0x6a, 0x8d, 0xaa, 0xbd,
  0x2b, 0x00, 0x24, 0x3e, 0xea, 0x09, 0xe8, 0x3d, 0x75, 0xbf, 0x27, 0x3c,
  0x78, 0x32, 0xd7, 0x3b, 0xc4, 0x6c, 0x81, 0x3d, 0xf9, 0x76, 0x43, 0xbe,
  0x97, 0x88, 0x06, 0x3e, 0x60, 0xba, 0x3c, 0xbe, 0xf8, 0x8e, 0x28, 0xbe,
  0x65, 0x36, 0x93, 0x3d, 0x45, 0x49, 0x06, 0xbe, 0xe5, 0x4d, 0x3a, 0xbe,
  0xb3, 0x8f, 0x02, 0xbe, 0xd4, 0x24, 0xb7, 0x3d, 0x6b, 0x44, 0x1c, 0x3e,
  0x84, 0x57, 0x20, 0x3e, 0xa8, 0x50, 0x75, 0xbc, 0x4b, 0x06, 0x3b, 0xbd,
  0xba, 0x80, 0xac, 0xbd, 0x39, 0x1c, 0xa0, 0x3d, 0x69, 0x99, 0x85, 0xbd,
  0x1a, 0x35, 0x22, 0x3c, 0x6b, 0x5d, 0x12, 0x3e, 0x6c, 0x6a, 0x13, 0xbe,
  0x58, 0x49, 0x1c, 0xbe, 0xaf, 0x54, 0xcc, 0x3d, 0x7d, 0x29, 0x85, 0xbd,
  0x4d, 0x61, 0xac, 0x3d, 0x90, 0xc9, 0x31, 0xbc, 0x96, 0xf8, 0xff, 0xff,
  0x04, 0x00, 0x00, 0x00, 0x80, 0x04, 0x00, 0x00, 0x51, 0xd7, 0x46, 0x3d,
  0xb6, 0x1a, 0xf6, 0xbd, 0x09, 0x2e, 0x0f, 0x3e, 0xb9, 0x24, 0xb3, 0x3d,
  0x35, 0x80, 0x22, 0x3e, 0xe0, 0x9c, 0xf0, 0x3d, 0x51, 0x9a, 0x19, 0x3c,
  0xa1, 0x6f, 0x39, 0x3c, 0x71, 0xc9, 0x17, 0xbe, 0xb3, 0x08, 0x46, 0xbe,
  0x61, 0xa9, 0x3d, 0x3e, 0x62, 0xb4, 0x60, 0x3e, 0xe0, 0x80, 0xeb, 0x3d,
  0x45, 0x9e, 0xe0, 0x3d, 0xe9, 0x39, 0xc7, 0xbd, 0x9c, 0xea, 0x3f, 0x3e,
  0x55, 0x95, 0x16, 0x3e, 0x07, 0x3a, 0x31, 0x3e, 0x54, 0x2b, 0x08, 0xbe,
  0x1c, 0x1b, 0xe3, 0x3d, 0xf7, 0x06, 0xd3, 0x3d, 0x66, 0x32, 0x0b, 0x3e,
  0xe5, 0x84, 0x17, 0x3c, 0x1d, 0x59, 0x43, 0x3e, 0xda, 0xb8, 0x2c, 0xbe,
  0xff, 0x70, 0xca, 0x3d, 0x31, 0x8b, 0x5b, 0xbe, 0xc6, 0x71, 0xe6, 0x3d,
  0xf1, 0x0c, 0x95, 0xbd, 0x7e, 0x9d, 0x59, 0x3e, 0xa5, 0xbb, 0xcd, 0xbd,
  0x9e, 0x9e, 0x80, 0x3e, 0x14, 0x6f, 0x4b, 0x3d, 0x32, 0x74, 0x56, 0x3e,
  0xea, 0x48, 0x1e, 0xbe, 0x4c, 0xa3, 0x76, 0x3d, 0xe9, 0xe4, 0x50, 0x3e,
  0xd9, 0xe9, 0x55, 0xbe, 0xab, 0xee, 0x0f, 0xbe, 0x09, 0x57, 0x68, 0xbd,
  0x21, 0x88, 0x8c, 0xbe, 0x10, 0xab, 0x9e, 0x3d, 0x26, 0x81, 0x7c, 0xbc,
  0xf5, 0xde, 0x45, 0x3e, 0x84, 0xee, 0x17, 0xbe, 0x3e, 0x80, 0x3c, 0xbe,
  0xb7, 0xea, 0x3f, 0xbe, 0xd6, 0x28, 0x50, 0x3e, 0x62, 0x5e, 0xd8, 0x3c,
  0x06, 0x35, 0x2d, 0xbc, 0xe9, 0xcf, 0xd9, 0xbd, 0x88, 0x89, 0x8d, 0x3d,
  0xb9, 0x89, 0xea, 0x3d, 0x34, 0x32, 0x22, 0xbd, 0x9d, 0x34, 0x0f, 0xbe,
  0x0d, 0x1c, 0x4c, 0xbe, 0xbe, 0x41, 0x22, 0x3d, 0xdc, 0xcf, 0x0e, 0x3e,
  0xc8, 0x45, 0x1f, 0x3e, 0x16, 0x96, 0xf5, 0x3d, 0x65, 0x3c, 0x81, 0x3d,
  0x4f, 0x35, 0x24, 0x3e, 0x6a, 0xa1, 0xa8, 0x3d, 0xc1, 0x1d, 0x27, 0x3c,
  0xdd, 0xc6, 0x93, 0xbd, 0x2e, 0xaf, 0x10, 0x3e, 0xbc, 0x82, 0x03, 0xbd,
  0xa9, 0xe5, 0x0e, 0xbe, 0x86, 0xce, 0x6f, 0x3d, 0x3d, 0xdd, 0x34, 0x3e,
  0x0b, 0xe3, 0xe6, 0x3d, 0x79, 0xf3, 0x27, 0xbe, 0x02, 0x1e, 0xc1, 0xbd,
  0xb8, 0xd7, 0xa4, 0xbd, 0xdc, 0x9e, 0x8b, 0xb9, 0x28, 0xfe, 0x35, 0x3e,
  0xaa, 0x88, 0x3b, 0xbe, 0x3d, 0xb1, 0x49, 0x3e, 0x17, 0xf1, 0x5f, 0x3e,
  0x9f, 0x93, 0x5e, 0x3e, 0xf0, 0xa7, 0x92, 0xbd, 0xba, 0x2c, 0x54, 0x3e,
  0xcb, 0x4a, 0xf7, 0x3d, 0xfc, 0x1c, 0x5c, 0xbc, 0x1f, 0x1c, 0xc2, 0xbd,
  0x7b, 0x19, 0xe7, 0x3b, 0x5f, 0x22, 0x05, 0xbe, 0x24, 0x04, 0xfb, 0xbd,
  0xa4, 0x6c, 0xff, 0xbc, 0xe1, 0x8d, 0x04, 0xbe, 0x03, 0xd3, 0x5c, 0x3d,
  0xe0, 0xec, 0x12, 0xbe, 0x58, 0x7c, 0x59, 0xbe, 0x6d, 0x08, 0x3a, 0x3e,
  0x46, 0x62, 0x4a, 0xbe, 0x55, 0xd8, 0xba, 0xbd, 0xff, 0x13, 0xf3, 0xbd,
  0xe9, 0x9e, 0x16, 0xbe, 0xbb, 0xf7, 0x23, 0xbe, 0x3e, 0xeb, 0xbb, 0x3d,
  0x0e, 0x76, 0x4e, 0xbe, 0xf9, 0x48, 0x9c, 0x3d, 0xfe, 0x7f, 0x75, 0x3d,
  0x75, 0x08, 0xe3, 0xbc, 0x25, 0xba, 0x87, 0x3d, 0x33, 0x44, 0xfa, 0xbd,
  0xd7, 0xcf, 0x62, 0x3e, 0x9e, 0xac, 0x34, 0xbd, 0x05, 0xca, 0x03, 0xbe,
  0x55, 0x3a, 0x90, 0xbd, 0x33, 0xcb, 0x30, 0xbd, 0xa9, 0x0c, 0x24, 0x3e,
  0x46, 0x38, 0x6d, 0xbe, 0x80, 0x86, 0x28, 0x3e, 0x13, 0x8b, 0x5a, 0x3e,
  0xb5, 0x5d, 0xcb, 0x3d, 0xb9, 0x65, 0x47, 0x3b, 0x9a, 0xb0, 0x5a, 0x3e,
  0x1a, 0x02, 0x6d, 0x3c, 0x15, 0x1c, 0x06, 0xbe, 0xca, 0x4f, 0x0a, 0x3d,
  0x67, 0xf8, 0xf2, 0xbd, 0x1b, 0x1a, 0x3c, 0x3e, 0x3c, 0x56, 0x22, 0xbe,
  0xbf, 0xc9, 0xf3, 0x3d, 0xe7, 0x7d, 0xf2, 0x3d, 0xb7, 0xb4, 0xb8, 0xbd,
  0x9c, 0x97, 0x4e, 0x3e, 0xd4, 0x36, 0x42, 0xbe, 0x9a, 0x15, 0x1b, 0xbb,
  0x1a, 0x7c, 0x22, 0x3e, 0xad, 0x29, 0x41, 0x3c, 0xd8, 0x67, 0x7e, 0xbe,
  0x8a, 0xa9, 0x66, 0xbe, 0xfa, 0xee, 0x2b, 0xbe, 0x4e, 0x74, 0x5e, 0x3e,
  0xed, 0xd8, 0x1d, 0xbd, 0x8a, 0xda, 0x83, 0xbd, 0x5a, 0x6e, 0x2a, 0xbe,
  0x43, 0x62, 0xf4, 0x3d, 0xab, 0x2c, 0xc7, 0xbd, 0x1a, 0x60, 0x0a, 0x3e,
  0x75, 0x09, 0x60, 0xbe, 0xa1, 0x5b, 0xea, 0x3d, 0xc7, 0x16, 0x1b, 0x3e,
  0x8f, 0x2f, 0x68, 0xbe, 0x8d, 0x99, 0x19, 0xbd, 0x49, 0x9e, 0x2c, 0xbe,
  0xff, 0xc7, 0x64, 0xbe, 0x26, 0x33, 0x40, 0x3d, 0x46, 0x6e, 0x44, 0x3d,
  0xf8, 0x6f, 0xaa, 0xbd, 0xbe, 0xcf, 0x1e, 0xbe, 0x0f, 0x7f, 0x7c, 0x3c,
  0x3f, 0x07, 0x8e, 0xbd, 0x37, 0x98, 0x6c, 0xbe, 0x1d, 0xb6, 0x0e, 0xbc,
  0x0b, 0xaf, 0x72, 0x3e, 0xf8, 0xc0, 0x1e, 0x3e, 0xf6, 0x86, 0xe3, 0xbc,
  0x99, 0x55, 0x11, 0x3c, 0x8d, 0xe4, 0x61, 0xbc, 0x59, 0xf3, 0xd9, 0x3d,
  0x26, 0x6d, 0x72, 0xbd, 0xf6, 0x41, 0xf3, 0x3d, 0x4d, 0xd9, 0x50, 0xbe,
  0x57, 0x55, 0x56, 0x3e, 0xbb, 0x03, 0x44, 0xbe, 0x29, 0x72, 0x41, 0x3e,
  0x98, 0x99, 0x27, 0xbe, 0x69, 0x90, 0xab, 0xbd, 0xd7, 0x08, 0xca, 0x3d,
  0xbb, 0xaa, 0xb9, 0xbb, 0x69, 0xd2, 0x17, 0xbe, 0x6e, 0x44, 0x33, 0x3e,
  0xb9, 0x89, 0xaf, 0x3d, 0x47, 0x9b, 0x32, 0xbe, 0x9c, 0x28, 0xb1, 0x3d,
  0xf3, 0x79, 0xa2, 0xbd, 0x60, 0x60, 0x66, 0x3e, 0x51, 0x4d, 0x66, 0xbe,
  0x21, 0xc0, 0x86, 0xbd, 0x67, 0x77, 0xb1, 0x3d, 0x8a, 0xb8, 0xea, 0xbc,
  0x76, 0x3d, 0x30, 0xbd, 0x09, 0xcc, 0x74, 0x3e, 0xda, 0x77, 0x9b, 0xbd,
  0x05, 0x89, 0x3c, 0x3e, 0x18, 0x28, 0x9d, 0x3d, 0x42, 0xb0, 0xa4, 0x3d,
  0xbc, 0xac, 0xc9, 0xbd, 0x68, 0xa9, 0x1b, 0x3d, 0xe0, 0x9e, 0x20, 0x3d,
  0x75, 0x03, 0xea, 0xbd, 0xba, 0xb8, 0xda, 0xbd, 0xfd, 0xc6, 0x26, 0x3e,
  0xe9, 0xa0, 0x25, 0x3d, 0x68, 0x11, 0x91, 0xbd, 0x63, 0xf4, 0xdf, 0xbd,
  0x83, 0x63, 0xdb, 0x3d, 0x45, 0xc0, 0x02, 0x3d, 0x93, 0x0f, 0xfd, 0xbd,
  0x0d, 0x05, 0x3f, 0x3e, 0x9d, 0xb9, 0x61, 0xbe, 0x65, 0xe2, 0x88, 0x3d,
  0xfb, 0xa6, 0x41, 0x3e, 0xcd, 0xbf, 0x6a, 0xbe, 0xa1, 0xe9, 0xe8, 0xbd,
  0x27, 0x30, 0x16, 0xbe, 0x26, 0xb8, 0x27, 0xbe, 0xf0, 0xf6, 0x48, 0xbe,
  0x1a, 0xe5, 0xd0, 0x3d, 0xda, 0x94, 0x30, 0x3e, 0x2e, 0x0c, 0x43, 0x3d,
  0xae, 0x4d, 0x2b, 0xbe, 0xc1, 0xe8, 0x8d, 0xbd, 0xce, 0xd8, 0xdf, 0xbd,
  0x25, 0xa8, 0x1f, 0x3e, 0xfb, 0x12, 0x65, 0x3e, 0x6a, 0xfb, 0xef, 0xbd,
  0x7e, 0x69, 0x42, 0x3d, 0x65, 0xb5, 0x44, 0x3e, 0xc1, 0xa5, 0x98, 0x3d,
  0x35, 0x1f, 0x81, 0xbc, 0x94, 0x45, 0xf3, 0x3c, 0xfb, 0x88, 0xe3, 0xbc,
  0xa5, 0x1a, 0x51, 0xbe, 0xc9, 0xfb, 0x79, 0xbe, 0xc9, 0xd8, 0xe9, 0x3c,
  0x6b, 0x51, 0x30, 0x3e, 0x38, 0x07, 0x1d, 0x3e, 0xb5, 0x9f, 0xa1, 0xbc,
  0x83, 0x85, 0x4b, 0x3c, 0x13, 0xb3, 0x35, 0x3e, 0x7a, 0x82, 0xb0, 0x3b,
  0x9c, 0x05, 0x50, 0x3d, 0x99, 0xfc, 0x9f, 0xbc, 0xb8, 0xe1, 0xd9, 0x3c,
  0x7c, 0x9e, 0x74, 0x3e, 0x9f, 0x4f, 0xce, 0xbd, 0x14, 0xc3, 0xc2, 0x3d,
  0x95, 0x66, 0x4c, 0xbe, 0xe4, 0x93, 0x57, 0xbc, 0x74, 0x04, 0xeb, 0x3d,
  0x6b, 0x53, 0x27, 0xbc, 0x83, 0x54, 0xfa, 0xbc, 0xf4, 0xa9, 0x27, 0xbe,
  0xcc, 0x95, 0x22, 0x3e, 0x30, 0xbe, 0x0f, 0xbc, 0x30, 0x06, 0x5d, 0x3e,
  0x3b, 0x33, 0x96, 0x3d, 0x7c, 0x20, 0x86, 0xbd, 0xbe, 0x5b, 0x0d, 0x3e,
  0x2e, 0x36, 0x19, 0x3d, 0x36, 0xbd, 0x6a, 0x3e, 0xd7, 0x0e, 0x0f, 0x3e,
  0xfd, 0xa7, 0x07, 0xbd, 0x55, 0xb2, 0xf2, 0xbd, 0x97, 0x71, 0x34, 0xbd,
  0x2d, 0x4d, 0x2d, 0xbe, 0x51, 0x5e, 0x17, 0x3e, 0x6b, 0xf3, 0x42, 0xbe,
  0xb5, 0x87, 0xa2, 0x3d, 0x2e, 0x89, 0x96, 0x3d, 0xf0, 0x00, 0x9b, 0xbd,
  0xd4, 0x01, 0x4f, 0x3e, 0xc4, 0xe6, 0x04, 0xbe, 0xb7, 0x64, 0x64, 0x3e,
  0x8f, 0xf1, 0x20, 0xbd, 0xda, 0x14, 0x4e, 0xbe, 0xea, 0xdd, 0xbb, 0xbd,
  0xd2, 0x92, 0x0f, 0xbe, 0x08, 0x30, 0xc8, 0xbc, 0x71, 0xe1, 0x33, 0xbe,
  0x01, 0x81, 0x35, 0xbe, 0x6a, 0xca, 0x06, 0xbe, 0xa8, 0xa1, 0x5f, 0xbe,
  0xbb, 0x6d, 0xdb, 0x3d, 0xa2, 0x9e, 0x27, 0xbe, 0x89, 0x8b, 0x67, 0x3e,
  0x8f, 0x9a, 0x8a, 0x3d, 0x99, 0xc9, 0x1a, 0xbe, 0xd0, 0x7f, 0x40, 0x3e,
  0x9b, 0x9e, 0x31, 0xbe, 0x13, 0x8e, 0x56, 0xbd, 0x2a, 0x15, 0xc8, 0xbd,
  0xb4, 0xd8, 0xb9, 0x3d, 0xe0, 0x56, 0xca, 0xbd, 0x22, 0xfd, 0xff, 0xff,
  0x04, 0x00, 0x00, 0x00, 0xb0, 0x01, 0x00, 0x00, 0x3c, 0x7d, 0xa0, 0xbe,
  0xee, 0xc6, 0xc9, 0xbd, 0x11, 0x49, 0x34, 0xbd, 0xe0, 0x5e, 0xfb, 0xbd,
  0x16, 0xe0, 0x86, 0xbe, 0x64, 0x42, 0x21, 0xbd, 0x4d, 0xb1, 0x64, 0x3e,
  0xe4, 0xba, 0x4a, 0xbe, 0x69, 0x70, 0x63, 0x3e, 0x76, 0x84, 0x32, 0xbd,
  0x75, 0xa5, 0x1d, 0x3e, 0xb1, 0xd3, 0x98, 0xbe, 0x30, 0xbd, 0x91, 0x3e,
  0xa0, 0xa5, 0xe9, 0x3d, 0x03, 0x34, 0x96, 0x3e, 0x35, 0x41, 0x09, 0x3d,
  0x4f, 0x78, 0x66, 0xbe, 0x39, 0x84, 0x7d, 0x3e, 0xfd, 0xac, 0x21, 0xbd,
  0xfd, 0xac, 0x92, 0xbe, 0x59, 0x1e, 0x05, 0xbe, 0x04, 0xc0, 0x11, 0x3e,
  0x4f, 0x94, 0x9f, 0xbc, 0x77, 0x55, 0x28, 0x3c, 0x39, 0xf3, 0x40, 0x3e,
  0xf3, 0x6c, 0x95, 0xbd, 0x10, 0xee, 0x02, 0x3e, 0xe5, 0x05, 0x8f, 0x3e,
  0x1c, 0xaa, 0xd9, 0xbc, 0x9b, 0x72, 0xa3, 0x3b, 0x9d, 0x4d, 0x9f, 0xbe,
  0x01, 0x32, 0x8b, 0xbe, 0x8c, 0x6a, 0xd4, 0xbd, 0xc4, 0x8b, 0xb7, 0x3d,
  0xe8, 0x1e, 0xe5, 0x3b, 0xc9, 0x43, 0x53, 0x3d, 0x17, 0xea, 0x5a, 0xbe,
  0xc1, 0x02, 0x82, 0xbe, 0xe3, 0x35, 0x0e, 0x3e, 0x9c, 0x94, 0x1d, 0xbd,
  0x78, 0x3f, 0x9b, 0x3e, 0xf1, 0x7c, 0x81, 0xbd, 0xcc, 0x8c, 0x84, 0xbd,
  0x69, 0x60, 0x65, 0x3e, 0x4b, 0x09, 0x45, 0x3e, 0xa8, 0xea, 0x6d, 0xbd,
  0x55, 0xdc, 0x79, 0x3e, 0xda, 0xb1, 0x96, 0x3e, 0x18, 0xaa, 0x0c, 0x3d,
  0x38, 0xce, 0x5e, 0xbe, 0x40, 0xfe, 0xb4, 0x3d, 0x61, 0x33, 0x96, 0x3e,
  0xa3, 0x89, 0xf7, 0xbd, 0xfe, 0x04, 0x89, 0x3e, 0x8e, 0x69, 0x1f, 0x3e,
  0x2d, 0xfb, 0x4c, 0xbe, 0x7c, 0x92, 0xe1, 0xbd, 0x13, 0x58, 0xb9, 0xbd,
  0x04, 0x40, 0x3f, 0x3e, 0x58, 0xf9, 0x98, 0xbe, 0x47, 0x2d, 0x0c, 0x3e,
  0x33, 0x63, 0x1f, 0xbd, 0xab, 0x16, 0x24, 0x3e, 0x81, 0x2f, 0x13, 0xbe,
  0x80, 0xa0, 0x05, 0xbe, 0xfb, 0x63, 0x6f, 0x3e, 0x5b, 0x00, 0x92, 0x3e,
  0xa9, 0x9d, 0x4e, 0x3e, 0x96, 0x2a, 0x47, 0x3d, 0xf7, 0xb7, 0xa1, 0xbd,
  0x81, 0x63, 0x88, 0xbe, 0x19, 0x3b, 0xf5, 0xbd, 0x89, 0xa4, 0x5b, 0xbc,
  0xaf, 0x2a, 0x8d, 0xbe, 0xea, 0x7f, 0x61, 0x3e, 0xc7, 0xb7, 0x4e, 0x3e,
  0x37, 0xef, 0x72, 0x3e, 0xfb, 0xcc, 0xc5, 0xb8, 0x62, 0xac, 0x92, 0x3e,
  0x36, 0x71, 0xac, 0xbd, 0x5f, 0xf2, 0x8b, 0xbe, 0xea, 0x65, 0xed, 0xbc,
  0x92, 0xac, 0x92, 0x3e, 0xe5, 0x44, 0xff, 0x3d, 0x0a, 0xab, 0x40, 0xbe,
  0x2d, 0x4c, 0x01, 0x3d, 0xe9, 0xcd, 0x09, 0xbd, 0x26, 0xae, 0xf3, 0xbb,
  0xf7, 0x5e, 0xa1, 0xbd, 0xf3, 0x5c, 0x9b, 0x3d, 0xd3, 0x6c, 0xdf, 0x3d,
  0x6e, 0xc7, 0x83, 0xbe, 0xa6, 0x3f, 0x1d, 0xbe, 0x14, 0x92, 0x98, 0xbe,
  0x5e, 0x81, 0x48, 0x3e, 0xa1, 0x2c, 0xd7, 0x3c, 0xa0, 0xa1, 0x23, 0xbe,
  0x8f, 0xde, 0x5e, 0x3e, 0x2e, 0xb2, 0x29, 0xbe, 0x8a, 0x15, 0xcb, 0xbd,
  0x5c, 0xb2, 0x5d, 0xbc, 0xbc, 0xa9, 0x96, 0x3c, 0x9d, 0x17, 0x12, 0x3e,
  0xca, 0x37, 0xb6, 0xbd, 0x35, 0x54, 0x84, 0x3e, 0xbd, 0x7b, 0x95, 0xbe,
  0xec, 0x83, 0x37, 0x3d, 0x87, 0x52, 0x93, 0xbe, 0xde, 0xfe, 0xff, 0xff,
  0x04, 0x00, 0x00, 0x00, 0x30, 0x00, 0x00, 0x00, 0x00, 0x00, 0x00, 0x00,
  0xad, 0xcd, 0x03, 0x3c, 0x98, 0xa0, 0x78, 0xba, 0x16, 0x2f, 0x2d, 0x3c,
  0x89, 0x43, 0xf6, 0x3a, 0x8b, 0x12, 0x62, 0xbb, 0xf1, 0xd1, 0x41, 0x3c,
  0x00, 0x00, 0x00, 0x00, 0x01, 0x24, 0x0c, 0x3c, 0xd6, 0xc7, 0x0d, 0x39,
  0x25, 0x98, 0xef, 0xb9, 0x07, 0x47, 0x1b, 0xbc, 0x1a, 0xff, 0xff, 0xff,
  0x04, 0x00, 0x00, 0x00, 0x20, 0x00, 0x00, 0x00, 0xf0, 0xbc, 0xcd, 0xb9,
  0xd0, 0x66, 0xec, 0xbb, 0x56, 0x76, 0x1c, 0xbc, 0xa4, 0x57, 0xdc, 0x3b,
  0x19, 0xa1, 0x8b, 0x3c, 0xf4, 0xd8, 0xf3, 0x3b, 0x68, 0xbf, 0x46, 0x3a,
  0x52, 0x48, 0x9a, 0x3a, 0x46, 0xff, 0xff, 0xff, 0x04, 0x00, 0x00, 0x00,
  0x10, 0x00, 0x00, 0x00, 0x3a, 0x54, 0x26, 0xbb, 0x0f, 0x42, 0x10, 0xbc,
  0xb5, 0x4b, 0x41, 0xbb, 0xdf, 0xbd, 0x13, 0xba, 0x44, 0xf3, 0xff, 0xff,
  0x48, 0xf3, 0xff, 0xff, 0x0f, 0x00, 0x00, 0x00, 0x4d, 0x4c, 0x49, 0x52,
  0x20, 0x43, 0x6f, 0x6e, 0x76, 0x65, 0x72, 0x74, 0x65, 0x64, 0x2e, 0x00,
  0x01, 0x00, 0x00, 0x00, 0x14, 0x00, 0x00, 0x00, 0x00, 0x00, 0x0e, 0x00,
  0x18, 0x00, 0x14, 0x00, 0x10, 0x00, 0x0c, 0x00, 0x08, 0x00, 0x04, 0x00,
  0x0e, 0x00, 0x00, 0x00, 0x14, 0x00, 0x00, 0x00, 0x1c, 0x00, 0x00, 0x00,
  0xec, 0x02, 0x00, 0x00, 0xf0, 0x02, 0x00, 0x00, 0xf4, 0x02, 0x00, 0x00,
  0x04, 0x00, 0x00, 0x00, 0x6d, 0x61, 0x69, 0x6e, 0x00, 0x00, 0x00, 0x00,
  0x0a, 0x00, 0x00, 0x00, 0x84, 0x02, 0x00, 0x00, 0x20, 0x02, 0x00, 0x00,
  0xcc, 0x01, 0x00, 0x00, 0x88, 0x01, 0x00, 0x00, 0x34, 0x01, 0x00, 0x00,
  0xf0, 0x00, 0x00, 0x00, 0xc8, 0x00, 0x00, 0x00, 0x78, 0x00, 0x00, 0x00,
  0x40, 0x00, 0x00, 0x00, 0x04, 0x00, 0x00, 0x00, 0x12, 0xfe, 0xff, 0xff,
  0x1c, 0x00, 0x00, 0x00, 0x00, 0x00, 0x00, 0x09, 0x1c, 0x00, 0x00, 0x00,
  0x20, 0x00, 0x00, 0x00, 0x04, 0x00, 0x00, 0x00, 0x00, 0x00, 0x06, 0x00,
  0x08, 0x00, 0x04, 0x00, 0x06, 0x00, 0x00, 0x00, 0x00, 0x00, 0x80, 0x3f,
  0x01, 0x00, 0x00, 0x00, 0x15, 0x00, 0x00, 0x00, 0x01, 0x00, 0x00, 0x00,
  0x14, 0x00, 0x00, 0x00, 0xda, 0xfe, 0xff, 0xff, 0x14, 0x00, 0x00, 0x00,
  0x00, 0x00, 0x00, 0x08, 0x10, 0x00, 0x00, 0x00, 0x14, 0x00, 0x00, 0x00,
  0x03, 0x00, 0x00, 0x00, 0x18, 0xf4, 0xff, 0xff, 0x01, 0x00, 0x00, 0x00,
  0x14, 0x00, 0x00, 0x00, 0x03, 0x00, 0x00, 0x00, 0x13, 0x00, 0x00, 0x00,
  0x0b, 0x00, 0x00, 0x00, 0x08, 0x00, 0x00, 0x00, 0x7e, 0xfe, 0xff, 0xff,
  0x1c, 0x00, 0x00, 0x00, 0x00, 0x00, 0x00, 0x08, 0x1c, 0x00, 0x00, 0x00,
  0x20, 0x00, 0x00, 0x00, 0x03, 0x00, 0x00, 0x00, 0x00, 0x00, 0x06, 0x00,
  0x08, 0x00, 0x07, 0x00, 0x06, 0x00, 0x00, 0x00, 0x00, 0x00, 0x00, 0x01,
  0x01, 0x00, 0x00, 0x00, 0x13, 0x00, 0x00, 0x00, 0x03, 0x00, 0x00, 0x00,
  0x12, 0x00, 0x00, 0x00, 0x0a, 0x00, 0x00, 0x00, 0x07, 0x00, 0x00, 0x00,
  0x00, 0x00, 0x0a, 0x00, 0x10, 0x00, 0x0c, 0x00, 0x08, 0x00, 0x04, 0x00,
  0x0a, 0x00, 0x00, 0x00, 0x0c, 0x00, 0x00, 0x00, 0x10, 0x00, 0x00, 0x00,
  0x02, 0x00, 0x00, 0x00, 0x01, 0x00, 0x00, 0x00, 0x12, 0x00, 0x00, 0x00,
  0x02, 0x00, 0x00, 0x00, 0x11, 0x00, 0x00, 0x00, 0x09, 0x00, 0x00, 0x00,
  0x7e, 0xff, 0xff, 0xff, 0x14, 0x00, 0x00, 0x00, 0x00, 0x00, 0x00, 0x05,
  0x24, 0x00, 0x00, 0x00, 0x28, 0x00, 0x00, 0x00, 0x01, 0x00, 0x00, 0x00,
  0xde, 0xfe, 0xff, 0xff, 0x02, 0x00, 0x00, 0x00, 0x02, 0x00, 0x00, 0x00,
  0x02, 0x00, 0x00, 0x00, 0x02, 0x00, 0x00, 0x00, 0x00, 0x00, 0x00, 0x01,
  0x01, 0x00, 0x00, 0x00, 0x11, 0x00, 0x00, 0x00, 0x01, 0x00, 0x00, 0x00,
  0x10, 0x00, 0x00, 0x00, 0xce, 0xfe, 0xff, 0xff, 0x10, 0x00, 0x00, 0x00,
  0x00, 0x00, 0x00, 0x01, 0x1c, 0x00, 0x00, 0x00, 0x20, 0x00, 0x00, 0x00,
  0xc0, 0xfe, 0xff, 0xff, 0x00, 0x00, 0x00, 0x01, 0x01, 0x00, 0x00, 0x00,
  0x01, 0x00, 0x00, 0x00, 0x00, 0x00, 0x00, 0x01, 0x01, 0x00, 0x00, 0x00,
  0x10, 0x00, 0x00, 0x00, 0x03, 0x00, 0x00, 0x00, 0x0f, 0x00, 0x00, 0x00,
  0x06, 0x00, 0x00, 0x00, 0x03, 0x00, 0x00, 0x00, 0x00, 0x00, 0x0e, 0x00,
  0x18, 0x00, 0x14, 0x00, 0x10, 0x00, 0x0c, 0x00, 0x0b, 0x00, 0x04, 0x00,
  0x0e, 0x00, 0x00, 0x00, 0x14, 0x00, 0x00, 0x00, 0x00, 0x00, 0x00, 0x05,
  0x24, 0x00, 0x00, 0x00, 0x28, 0x00, 0x00, 0x00, 0x01, 0x00, 0x00, 0x00,
  0x6e, 0xff, 0xff, 0xff, 0x02, 0x00, 0x00, 0x00, 0x02, 0x00, 0x00, 0x00,
  0x02, 0x00, 0x00, 0x00, 0x02, 0x00, 0x00, 0x00, 0x00, 0x00, 0x00, 0x01,
  0x01, 0x00, 0x00, 0x00, 0x0f, 0x00, 0x00, 0x00, 0x01, 0x00, 0x00, 0x00,
  0x0e, 0x00, 0x00, 0x00, 0x5e, 0xff, 0xff, 0xff, 0x10, 0x00, 0x00, 0x00,
  0x00, 0x00, 0x00, 0x01, 0x1c, 0x00, 0x00, 0x00, 0x20, 0x00, 0x00, 0x00,
  0x50, 0xff, 0xff, 0xff, 0x00, 0x00, 0x00, 0x01, 0x01, 0x00, 0x00, 0x00,
  0x01, 0x00, 0x00, 0x00, 0x00, 0x00, 0x00, 0x01, 0x01, 0x00, 0x00, 0x00,
  0x0e, 0x00, 0x00, 0x00, 0x03, 0x00, 0x00, 0x00, 0x0d, 0x00, 0x00, 0x00,
  0x05, 0x00, 0x00, 0x00, 0x02, 0x00, 0x00, 0x00, 0x00, 0x00, 0x0e, 0x00,
  0x1a, 0x00, 0x14, 0x00, 0x10, 0x00, 0x0c, 0x00, 0x0b, 0x00, 0x04, 0x00,
  0x0e, 0x00, 0x00, 0x00, 0x24, 0x00, 0x00, 0x00, 0x00, 0x00, 0x00, 0x05,
  0x34, 0x00, 0x00, 0x00, 0x38, 0x00, 0x00, 0x00, 0x01, 0x00, 0x00, 0x00,
  0x00, 0x00, 0x0e, 0x00, 0x18, 0x00, 0x17, 0x00, 0x10, 0x00, 0x0c, 0x00,
  0x08, 0x00, 0x04, 0x00, 0x0e, 0x00, 0x00, 0x00, 0x02, 0x00, 0x00, 0x00,
  0x02, 0x00, 0x00, 0x00, 0x02, 0x00, 0x00, 0x00, 0x02, 0x00, 0x00, 0x00,
  0x00, 0x00, 0x00, 0x01, 0x01, 0x00, 0x00, 0x00, 0x0d, 0x00, 0x00, 0x00,
  0x01, 0x00, 0x00, 0x00, 0x0c, 0x00, 0x00, 0x00, 0x00, 0x00, 0x0e, 0x00,
  0x14, 0x00, 0x00, 0x00, 0x10, 0x00, 0x0c, 0x00, 0x0b, 0x00, 0x04, 0x00,
  0x0e, 0x00, 0x00, 0x00, 0x1c, 0x00, 0x00, 0x00, 0x00, 0x00, 0x00, 0x01,
  0x28, 0x00, 0x00, 0x00, 0x2c, 0x00, 0x00, 0x00, 0x0c, 0x00, 0x14, 0x00,
  0x13, 0x00, 0x0c, 0x00, 0x08, 0x00, 0x07, 0x00, 0x0c, 0x00, 0x00, 0x00,
  0x00, 0x00, 0x00, 0x01, 0x01, 0x00, 0x00, 0x00, 0x01, 0x00, 0x00, 0x00,
  0x00, 0x00, 0x00, 0x01, 0x01, 0x00, 0x00, 0x00, 0x0c, 0x00, 0x00, 0x00,
  0x03, 0x00, 0x00, 0x00, 0x00, 0x00, 0x00, 0x00, 0x04, 0x00, 0x00, 0x00,
  0x01, 0x00, 0x00, 0x00, 0x01, 0x00, 0x00, 0x00, 0x15, 0x00, 0x00, 0x00,
  0x01, 0x00, 0x00, 0x00, 0x00, 0x00, 0x00, 0x00, 0x16, 0x00, 0x00, 0x00,
  0x4c, 0x09, 0x00, 0x00, 0xdc, 0x08, 0x00, 0x00, 0x6c, 0x08, 0x00, 0x00,
  0x14, 0x08, 0x00, 0x00, 0xc0, 0x07, 0x00, 0x00, 0x6c, 0x07, 0x00, 0x00,
  0x18, 0x07, 0x00, 0x00, 0xc4, 0x06, 0x00, 0x00, 0x6c, 0x06, 0x00, 0x00,
  0x20, 0x06, 0x00, 0x00, 0xc0, 0x05, 0x00, 0x00, 0x74, 0x05, 0x00, 0x00,
  0xb0, 0x04, 0x00, 0x00, 0x3c, 0x04, 0x00, 0x00, 0x70, 0x03, 0x00, 0x00,
  0xfc, 0x02, 0x00, 0x00, 0x30, 0x02, 0x00, 0x00, 0xbc, 0x01, 0x00, 0x00,
  0x60, 0x01, 0x00, 0x00, 0xd8, 0x00, 0x00, 0x00, 0x60, 0x00, 0x00, 0x00,
  0x04, 0x00, 0x00, 0x00, 0x22, 0xf7, 0xff, 0xff, 0x00, 0x00, 0x00, 0x01,
  0x14, 0x00, 0x00, 0x00, 0x1c, 0x00, 0x00, 0x00, 0x1c, 0x00, 0x00, 0x00,
  0x16, 0x00, 0x00, 0x00, 0x34, 0x00, 0x00, 0x00, 0x02, 0x00, 0x00, 0x00,
  0xff, 0xff, 0xff, 0xff, 0x03, 0x00, 0x00, 0x00, 0x04, 0xf7, 0xff, 0xff,
  0x19, 0x00, 0x00, 0x00, 0x53, 0x74, 0x61, 0x74, 0x65, 0x66, 0x75, 0x6c,
  0x50, 0x61, 0x72, 0x74, 0x69, 0x74, 0x69, 0x6f, 0x6e, 0x65, 0x64, 0x43,
  0x61, 0x6c, 0x6c, 0x3a, 0x30, 0x00, 0x00, 0x00, 0x02, 0x00, 0x00, 0x00,
  0x01, 0x00, 0x00, 0x00, 0x03, 0x00, 0x00, 0x00, 0x7a, 0xf7, 0xff, 0xff,
  0x00, 0x00, 0x00, 0x01, 0x14, 0x00, 0x00, 0x00, 0x1c, 0x00, 0x00, 0x00,
  0x1c, 0x00, 0x00, 0x00, 0x15, 0x00, 0x00, 0x00, 0x50, 0x00, 0x00, 0x00,
  0x02, 0x00, 0x00, 0x00, 0xff, 0xff, 0xff, 0xff, 0x03, 0x00, 0x00, 0x00,
  0x5c, 0xf7, 0xff, 0xff, 0x34, 0x00, 0x00, 0x00, 0x73, 0x65, 0x71, 0x75,
  0x65, 0x6e, 0x74, 0x69, 0x61, 0x6c, 0x2f, 0x64, 0x65, 0x6e, 0x73, 0x65,
  0x5f, 0x31, 0x2f, 0x4d, 0x61, 0x74, 0x4d, 0x75, 0x6c, 0x3b, 0x73, 0x65,
  0x71, 0x75, 0x65, 0x6e, 0x74, 0x69, 0x61, 0x6c, 0x2f, 0x64, 0x65, 0x6e,
  0x73, 0x65, 0x5f, 0x31, 0x2f, 0x42, 0x69, 0x61, 0x73, 0x41, 0x64, 0x64,
  0x00, 0x00, 0x00, 0x00, 0x02, 0x00, 0x00, 0x00, 0x01, 0x00, 0x00, 0x00,
  0x03, 0x00, 0x00, 0x00, 0xee, 0xf7, 0xff, 0xff, 0x00, 0x00, 0x00, 0x01,
  0x14, 0x00, 0x00, 0x00, 0x1c, 0x00, 0x00, 0x00, 0x1c, 0x00, 0x00, 0x00,
  0x14, 0x00, 0x00, 0x00, 0x60, 0x00, 0x00, 0x00, 0x02, 0x00, 0x00, 0x00,
  0xff, 0xff, 0xff, 0xff, 0x10, 0x00, 0x00, 0x00, 0xd0, 0xf7, 0xff, 0xff,
  0x46, 0x00, 0x00, 0x00, 0x73, 0x65, 0x71, 0x75, 0x65, 0x6e, 0x74, 0x69,
  0x61, 0x6c, 0x2f, 0x64, 0x65, 0x6e, 0x73, 0x65, 0x2f, 0x4d, 0x61, 0x74,
  0x4d, 0x75, 0x6c, 0x3b, 0x73, 0x65, 0x71, 0x75, 0x65, 0x6e, 0x74, 0x69,
  0x61, 0x6c, 0x2f, 0x64, 0x65, 0x6e, 0x73, 0x65, 0x2f, 0x52, 0x65, 0x6c,
  0x75, 0x3b, 0x73, 0x65, 0x71, 0x75, 0x65, 0x6e, 0x74, 0x69, 0x61, 0x6c,
  0x2f, 0x64, 0x65, 0x6e, 0x73, 0x65, 0x2f, 0x42, 0x69, 0x61, 0x73, 0x41,
  0x64, 0x64, 0x00, 0x00, 0x02, 0x00, 0x00, 0x00, 0x01, 0x00, 0x00, 0x00,
  0x10, 0x00, 0x00, 0x00, 0x72, 0xf8, 0xff, 0xff, 0x00, 0x00, 0x00, 0x01,
  0x14, 0x00, 0x00, 0x00, 0x1c, 0x00, 0x00, 0x00, 0x1c, 0x00, 0x00, 0x00,
  0x13, 0x00, 0x00, 0x00, 0x34, 0x00, 0x00, 0x00, 0x02, 0x00, 0x00, 0x00,
  0xff, 0xff, 0xff, 0xff, 0x6c, 0x00, 0x00, 0x00, 0x54, 0xf8, 0xff, 0xff,
  0x1a, 0x00, 0x00, 0x00, 0x73, 0x65, 0x71, 0x75, 0x65, 0x6e, 0x74, 0x69,
  0x61, 0x6c, 0x2f, 0x66, 0x6c, 0x61, 0x74, 0x74, 0x65, 0x6e, 0x2f, 0x52,
  0x65, 0x73, 0x68, 0x61, 0x70, 0x65, 0x00, 0x00, 0x02, 0x00, 0x00, 0x00,
  0x01, 0x00, 0x00, 0x00, 0x6c, 0x00, 0x00, 0x00, 0xca, 0xf8, 0xff, 0xff,
  0x00, 0x00, 0x00, 0x01, 0x14, 0x00, 0x00, 0x00, 0x24, 0x00, 0x00, 0x00,
  0x24, 0x00, 0x00, 0x00, 0x12, 0x00, 0x00, 0x00, 0x44, 0x00, 0x00, 0x00,
  0x04, 0x00, 0x00, 0x00, 0xff, 0xff, 0xff, 0xff, 0x03, 0x00, 0x00, 0x00,
  0x03, 0x00, 0x00, 0x00, 0x0c, 0x00, 0x00, 0x00, 0xb4, 0xf8, 0xff, 0xff,
  0x22, 0x00, 0x00, 0x00, 0x73, 0x65, 0x71, 0x75, 0x65, 0x6e, 0x74, 0x69,
  0x61, 0x6c, 0x2f, 0x6d, 0x61, 0x78, 0x5f, 0x70, 0x6f, 0x6f, 0x6c, 0x69,
  0x6e, 0x67, 0x32, 0x64, 0x5f, 0x32, 0x2f, 0x4d, 0x61, 0x78, 0x50, 0x6f,
  0x6f, 0x6c, 0x00, 0x00, 0x04, 0x00, 0x00, 0x00, 0x01, 0x00, 0x00, 0x00,
  0x03, 0x00, 0x00, 0x00, 0x03, 0x00, 0x00, 0x00, 0x0c, 0x00, 0x00, 0x00,
  0x3a, 0xf9, 0xff, 0xff, 0x00, 0x00, 0x00, 0x01, 0x14, 0x00, 0x00, 0x00,
  0x24, 0x00, 0x00, 0x00, 0x24, 0x00, 0x00, 0x00, 0x11, 0x00, 0x00, 0x00,
  0x9c, 0x00, 0x00, 0x00, 0x04, 0x00, 0x00, 0x00, 0xff, 0xff, 0xff, 0xff,
  0x06, 0x00, 0x00, 0x00, 0x06, 0x00, 0x00, 0x00, 0x0c, 0x00, 0x00, 0x00,
  0x24, 0xf9, 0xff, 0xff, 0x7a, 0x00, 0x00, 0x00, 0x73, 0x65, 0x71, 0x75,
  0x65, 0x6e, 0x74, 0x69, 0x61, 0x6c, 0x2f, 0x63, 0x6f, 0x6e, 0x76, 0x32,
  0x64, 0x5f, 0x32, 0x2f, 0x52, 0x65, 0x6c, 0x75, 0x3b, 0x73, 0x65, 0x71,
  0x75, 0x65, 0x6e, 0x74, 0x69, 0x61, 0x6c, 0x2f, 0x63, 0x6f, 0x6e, 0x76,
  0x32, 0x64, 0x5f, 0x32, 0x2f, 0x42, 0x69, 0x61, 0x73, 0x41, 0x64, 0x64,
  0x3b, 0x73, 0x65, 0x71, 0x75, 0x65, 0x6e, 0x74, 0x69, 0x61, 0x6c, 0x2f,
  0x63, 0x6f, 0x6e, 0x76, 0x32, 0x64, 0x5f, 0x32, 0x2f, 0x43, 0x6f, 0x6e,
  0x76, 0x32, 0x44, 0x3b, 0x73, 0x65, 0x71, 0x75, 0x65, 0x6e, 0x74, 0x69,
  0x61, 0x6c, 0x2f, 0x63, 0x6f, 0x6e, 0x76, 0x32, 0x64, 0x5f, 0x32, 0x2f,
  0x42, 0x69, 0x61, 0x73, 0x41, 0x64, 0x64, 0x2f, 0x52, 0x65, 0x61, 0x64,
  0x56, 0x61, 0x72, 0x69, 0x61, 0x62, 0x6c, 0x65, 0x4f, 0x70, 0x00, 0x00,
  0x04, 0x00, 0x00, 0x00, 0x01, 0x00, 0x00, 0x00, 0x06, 0x00, 0x00, 0x00,
  0x06, 0x00, 0x00, 0x00, 0x0c, 0x00, 0x00, 0x00, 0x02, 0xfa, 0xff, 0xff,
  0x00, 0x00, 0x00, 0x01, 0x14, 0x00, 0x00, 0x00, 0x24, 0x00, 0x00, 0x00,
  0x24, 0x00, 0x00, 0x00, 0x10, 0x00, 0x00, 0x00, 0x44, 0x00, 0x00, 0x00,
  0x04, 0x00, 0x00, 0x00, 0xff, 0xff, 0xff, 0xff, 0x08, 0x00, 0x00, 0x00,
  0x08, 0x00, 0x00, 0x00, 0x08, 0x00, 0x00, 0x00, 0xec, 0xf9, 0xff, 0xff,
  0x22, 0x00, 0x00, 0x00, 0x73, 0x65, 0x71, 0x75, 0x65, 0x6e, 0x74, 0x69,
  0x61, 0x6c, 0x2f, 0x6d, 0x61, 0x78, 0x5f, 0x70, 0x6f, 0x6f, 0x6c, 0x69,
  0x6e, 0x67, 0x32, 0x64, 0x5f, 0x31, 0x2f, 0x4d, 0x61, 0x78, 0x50, 0x6f,
  0x6f, 0x6c, 0x00, 0x00, 0x04, 0x00, 0x00, 0x00, 0x01, 0x00, 0x00, 0x00,
  0x08, 0x00, 0x00, 0x00, 0x08, 0x00, 0x00, 0x00, 0x08, 0x00, 0x00, 0x00,
  0x72, 0xfa, 0xff, 0xff, 0x00, 0x00, 0x00, 0x01, 0x14, 0x00, 0x00, 0x00,
  0x24, 0x00, 0x00, 0x00, 0x24, 0x00, 0x00, 0x00, 0x0f, 0x00, 0x00, 0x00,
  0x9c, 0x00, 0x00, 0x00, 0x04, 0x00, 0x00, 0x00, 0xff, 0xff, 0xff, 0xff,
  0x11, 0x00, 0x00, 0x00, 0x11, 0x00, 0x00, 0x00, 0x08, 0x00, 0x00, 0x00,
  0x5c, 0xfa, 0xff, 0xff, 0x7a, 0x00, 0x00, 0x00, 0x73, 0x65, 0x71, 0x75,
  0x65, 0x6e, 0x74, 0x69, 0x61, 0x6c, 0x2f, 0x63, 0x6f, 0x6e, 0x76, 0x32,
  0x64, 0x5f, 0x31, 0x2f, 0x52, 0x65, 0x6c, 0x75, 0x3b, 0x73, 0x65, 0x71,
  0x75, 0x65, 0x6e, 0x74, 0x69, 0x61, 0x6c, 0x2f, 0x63, 0x6f, 0x6e, 0x76,
  0x32, 0x64, 0x5f, 0x31, 0x2f, 0x42, 0x69, 0x61, 0x73, 0x41, 0x64, 0x64,
  0x3b, 0x73, 0x65, 0x71, 0x75, 0x65, 0x6e, 0x74, 0x69, 0x61, 0x6c, 0x2f,
  0x63, 0x6f, 0x6e, 0x76, 0x32, 0x64, 0x5f, 0x31, 0x2f, 0x43, 0x6f, 0x6e,
  0x76, 0x32, 0x44, 0x3b, 0x73, 0x65, 0x71, 0x75, 0x65, 0x6e, 0x74, 0x69,
  0x61, 0x6c, 0x2f, 0x63, 0x6f, 0x6e, 0x76, 0x32, 0x64, 0x5f, 0x31, 0x2f,
  0x42, 0x69, 0x61, 0x73, 0x41, 0x64, 0x64, 0x2f, 0x52, 0x65, 0x61, 0x64,
  0x56, 0x61, 0x72, 0x69, 0x61, 0x62, 0x6c, 0x65, 0x4f, 0x70, 0x00, 0x00,
  0x04, 0x00, 0x00, 0x00, 0x01, 0x00, 0x00, 0x00, 0x11, 0x00, 0x00, 0x00,
  0x11, 0x00, 0x00, 0x00, 0x08, 0x00, 0x00, 0x00, 0x3a, 0xfb, 0xff, 0xff,
  0x00, 0x00, 0x00, 0x01, 0x14, 0x00, 0x00, 0x00, 0x24, 0x00, 0x00, 0x00,
  0x24, 0x00, 0x00, 0x00, 0x0e, 0x00, 0x00, 0x00, 0x44, 0x00, 0x00, 0x00,
  0x04, 0x00, 0x00, 0x00, 0xff, 0xff, 0xff, 0xff, 0x13, 0x00, 0x00, 0x00,
  0x13, 0x00, 0x00, 0x00, 0x04, 0x00, 0x00, 0x00, 0x24, 0xfb, 0xff, 0xff,
  0x20, 0x00, 0x00, 0x00, 0x73, 0x65, 0x71, 0x75, 0x65, 0x6e, 0x74, 0x69,
  0x61, 0x6c, 0x2f, 0x6d, 0x61, 0x78, 0x5f, 0x70, 0x6f, 0x6f, 0x6c, 0x69,
  0x6e, 0x67, 0x32, 0x64, 0x2f, 0x4d, 0x61, 0x78, 0x50, 0x6f, 0x6f, 0x6c,
  0x00, 0x00, 0x00, 0x00, 0x04, 0x00, 0x00, 0x00, 0x01, 0x00, 0x00, 0x00,
  0x13, 0x00, 0x00, 0x00, 0x13, 0x00, 0x00, 0x00, 0x04, 0x00, 0x00, 0x00,
  0xaa, 0xfb, 0xff, 0xff, 0x00, 0x00, 0x00, 0x01, 0x14, 0x00, 0x00, 0x00,
  0x24, 0x00, 0x00, 0x00, 0x24, 0x00, 0x00, 0x00, 0x0d, 0x00, 0x00, 0x00,
  0x94, 0x00, 0x00, 0x00, 0x04, 0x00, 0x00, 0x00, 0xff, 0xff, 0xff, 0xff,
  0x26, 0x00, 0x00, 0x00, 0x26, 0x00, 0x00, 0x00, 0x04, 0x00, 0x00, 0x00,
  0x94, 0xfb, 0xff, 0xff, 0x72, 0x00, 0x00, 0x00, 0x73, 0x65, 0x71, 0x75,
  0x65, 0x6e, 0x74, 0x69, 0x61, 0x6c, 0x2f, 0x63, 0x6f, 0x6e, 0x76, 0x32,
  0x64, 0x2f, 0x52, 0x65, 0x6c, 0x75, 0x3b, 0x73, 0x65, 0x71, 0x75, 0x65,
  0x6e, 0x74, 0x69, 0x61, 0x6c, 0x2f, 0x63, 0x6f, 0x6e, 0x76, 0x32, 0x64,
  0x2f, 0x42, 0x69, 0x61, 0x73, 0x41, 0x64, 0x64, 0x3b, 0x73, 0x65, 0x71,
  0x75, 0x65, 0x6e, 0x74, 0x69, 0x61, 0x6c, 0x2f, 0x63, 0x6f, 0x6e, 0x76,
  0x32, 0x64, 0x2f, 0x43, 0x6f, 0x6e, 0x76, 0x32, 0x44, 0x3b, 0x73, 0x65,
  0x71, 0x75, 0x65, 0x6e, 0x74, 0x69, 0x61, 0x6c, 0x2f, 0x63, 0x6f, 0x6e,
  0x76, 0x32, 0x64, 0x2f, 0x42, 0x69, 0x61, 0x73, 0x41, 0x64, 0x64, 0x2f,
  0x52, 0x65, 0x61, 0x64, 0x56, 0x61, 0x72, 0x69, 0x61, 0x62, 0x6c, 0x65,
  0x4f, 0x70, 0x00, 0x00, 0x04, 0x00, 0x00, 0x00, 0x01, 0x00, 0x00, 0x00,
  0x26, 0x00, 0x00, 0x00, 0x26, 0x00, 0x00, 0x00, 0x04, 0x00, 0x00, 0x00,
  0xd6, 0xfc, 0xff, 0xff, 0x00, 0x00, 0x00, 0x01, 0x10, 0x00, 0x00, 0x00,
  0x10, 0x00, 0x00, 0x00, 0x0c, 0x00, 0x00, 0x00, 0x28, 0x00, 0x00, 0x00,
  0x3c, 0xfc, 0xff, 0xff, 0x19, 0x00, 0x00, 0x00, 0x73, 0x65, 0x71, 0x75,
  0x65, 0x6e, 0x74, 0x69, 0x61, 0x6c, 0x2f, 0x64, 0x65, 0x6e, 0x73, 0x65,
  0x5f, 0x31, 0x2f, 0x4d, 0x61, 0x74, 0x4d, 0x75, 0x6c, 0x00, 0x00, 0x00,
  0x02, 0x00, 0x00, 0x00, 0x03, 0x00, 0x00, 0x00, 0x10, 0x00, 0x00, 0x00,
  0x1e, 0xfd, 0xff, 0xff, 0x00, 0x00, 0x00, 0x01, 0x10, 0x00, 0x00, 0x00,
  0x10, 0x00, 0x00, 0x00, 0x0b, 0x00, 0x00, 0x00, 0x24, 0x00, 0x00, 0x00,
  0x84, 0xfc, 0xff, 0xff, 0x17, 0x00, 0x00, 0x00, 0x73, 0x65, 0x71, 0x75,
  0x65, 0x6e, 0x74, 0x69, 0x61, 0x6c, 0x2f, 0x64, 0x65, 0x6e, 0x73, 0x65,
  0x2f, 0x4d, 0x61, 0x74, 0x4d, 0x75, 0x6c, 0x00, 0x02, 0x00, 0x00, 0x00,
  0x10, 0x00, 0x00, 0x00, 0x6c, 0x00, 0x00, 0x00, 0x00, 0x00, 0x16, 0x00,
  0x1c, 0x00, 0x18, 0x00, 0x17, 0x00, 0x10, 0x00, 0x0c, 0x00, 0x08, 0x00,
  0x00, 0x00, 0x00, 0x00, 0x00, 0x00, 0x07, 0x00, 0x16, 0x00, 0x00, 0x00,
  0x00, 0x00, 0x00, 0x01, 0x14, 0x00, 0x00, 0x00, 0x14, 0x00, 0x00, 0x00,
  0x0a, 0x00, 0x00, 0x00, 0x00, 0x00, 0x00, 0x02, 0x28, 0x00, 0x00, 0x00,
  0xe4, 0xfc, 0xff, 0xff, 0x18, 0x00, 0x00, 0x00, 0x73, 0x65, 0x71, 0x75,
  0x65, 0x6e, 0x74, 0x69, 0x61, 0x6c, 0x2f, 0x66, 0x6c, 0x61, 0x74, 0x74,
  0x65, 0x6e, 0x2f, 0x43, 0x6f, 0x6e, 0x73, 0x74, 0x00, 0x00, 0x00, 0x00,
  0x01, 0x00, 0x00, 0x00, 0x02, 0x00, 0x00, 0x00, 0xc2, 0xfd, 0xff, 0xff,
  0x00, 0x00, 0x00, 0x01, 0x10, 0x00, 0x00, 0x00, 0x10, 0x00, 0x00, 0x00,
  0x09, 0x00, 0x00, 0x00, 0x38, 0x00, 0x00, 0x00, 0x28, 0xfd, 0xff, 0xff,
  0x29, 0x00, 0x00, 0x00, 0x73, 0x65, 0x71, 0x75, 0x65, 0x6e, 0x74, 0x69,
  0x61, 0x6c, 0x2f, 0x64, 0x65, 0x6e, 0x73, 0x65, 0x5f, 0x31, 0x2f, 0x42,
  0x69, 0x61, 0x73, 0x41, 0x64, 0x64, 0x2f, 0x52, 0x65, 0x61, 0x64, 0x56,
  0x61, 0x72, 0x69, 0x61, 0x62, 0x6c, 0x65, 0x4f, 0x70, 0x00, 0x00, 0x00,
  0x01, 0x00, 0x00, 0x00, 0x03, 0x00, 0x00, 0x00, 0x16, 0xfe, 0xff, 0xff,
  0x00, 0x00, 0x00, 0x01, 0x10, 0x00, 0x00, 0x00, 0x10, 0x00, 0x00, 0x00,
  0x08, 0x00, 0x00, 0x00, 0x34, 0x00, 0x00, 0x00, 0x7c, 0xfd, 0xff, 0xff,
  0x27, 0x00, 0x00, 0x00, 0x73, 0x65, 0x71, 0x75, 0x65, 0x6e, 0x74, 0x69,
  0x61, 0x6c, 0x2f, 0x64, 0x65, 0x6e, 0x73, 0x65, 0x2f, 0x42, 0x69, 0x61,
  0x73, 0x41, 0x64, 0x64, 0x2f, 0x52, 0x65, 0x61, 0x64, 0x56, 0x61, 0x72,
  0x69, 0x61, 0x62, 0x6c, 0x65, 0x4f, 0x70, 0x00, 0x01, 0x00, 0x00, 0x00,
  0x10, 0x00, 0x00, 0x00, 0x66, 0xfe, 0xff, 0xff, 0x00, 0x00, 0x00, 0x01,
  0x10, 0x00, 0x00, 0x00, 0x10, 0x00, 0x00, 0x00, 0x07, 0x00, 0x00, 0x00,
  0x28, 0x00, 0x00, 0x00, 0xcc, 0xfd, 0xff, 0xff, 0x1a, 0x00, 0x00, 0x00,
  0x73, 0x65, 0x71, 0x75, 0x65, 0x6e, 0x74, 0x69, 0x61, 0x6c, 0x2f, 0x63,
  0x6f, 0x6e, 0x76, 0x32, 0x64, 0x5f, 0x32, 0x2f, 0x43, 0x6f, 0x6e, 0x76,
  0x32, 0x44, 0x00, 0x00, 0x04, 0x00, 0x00, 0x00, 0x0c, 0x00, 0x00, 0x00,
  0x03, 0x00, 0x00, 0x00, 0x03, 0x00, 0x00, 0x00, 0x08, 0x00, 0x00, 0x00,
  0xb6, 0xfe, 0xff, 0xff, 0x00, 0x00, 0x00, 0x01, 0x10, 0x00, 0x00, 0x00,
  0x10, 0x00, 0x00, 0x00, 0x06, 0x00, 0x00, 0x00, 0x28, 0x00, 0x00, 0x00,
  0x1c, 0xfe, 0xff, 0xff, 0x1a, 0x00, 0x00, 0x00, 0x73, 0x65, 0x71, 0x75,
  0x65, 0x6e, 0x74, 0x69, 0x61, 0x6c, 0x2f, 0x63, 0x6f, 0x6e, 0x76, 0x32,
  0x64, 0x5f, 0x31, 0x2f, 0x43, 0x6f, 0x6e, 0x76, 0x32, 0x44, 0x00, 0x00,
  0x04, 0x00, 0x00, 0x00, 0x08, 0x00, 0x00, 0x00, 0x03, 0x00, 0x00, 0x00,
  0x03, 0x00, 0x00, 0x00, 0x04, 0x00, 0x00, 0x00, 0x06, 0xff, 0xff, 0xff,
  0x00, 0x00, 0x00, 0x01, 0x10, 0x00, 0x00, 0x00, 0x10, 0x00, 0x00, 0x00,
  0x05, 0x00, 0x00, 0x00, 0x28, 0x00, 0x00, 0x00, 0x6c, 0xfe, 0xff, 0xff,
  0x18, 0x00, 0x00, 0x00, 0x73, 0x65, 0x71, 0x75, 0x65, 0x6e, 0x74, 0x69,
  0x61, 0x6c, 0x2f, 0x63, 0x6f, 0x6e, 0x76, 0x32, 0x64, 0x2f, 0x43, 0x6f,
  0x6e, 0x76, 0x32, 0x44, 0x00, 0x00, 0x00, 0x00, 0x04, 0x00, 0x00, 0x00,
  0x04, 0x00, 0x00, 0x00, 0x03, 0x00, 0x00, 0x00, 0x03, 0x00, 0x00, 0x00,
  0x03, 0x00, 0x00, 0x00, 0x56, 0xff, 0xff, 0xff, 0x00, 0x00, 0x00, 0x01,
  0x10, 0x00, 0x00, 0x00, 0x10, 0x00, 0x00, 0x00, 0x04, 0x00, 0x00, 0x00,
  0x38, 0x00, 0x00, 0x00, 0xbc, 0xfe, 0xff, 0xff, 0x2a, 0x00, 0x00, 0x00,
  0x73, 0x65, 0x71, 0x75, 0x65, 0x6e, 0x74, 0x69, 0x61, 0x6c, 0x2f, 0x63,
  0x6f, 0x6e, 0x76, 0x32, 0x64, 0x5f, 0x32, 0x2f, 0x42, 0x69, 0x61, 0x73,
  0x41, 0x64, 0x64, 0x2f, 0x52, 0x65, 0x61, 0x64, 0x56, 0x61, 0x72, 0x69,
  0x61, 0x62, 0x6c, 0x65, 0x4f, 0x70, 0x00, 0x00, 0x01, 0x00, 0x00, 0x00,
  0x0c, 0x00, 0x00, 0x00, 0xaa, 0xff, 0xff, 0xff, 0x00, 0x00, 0x00, 0x01,
  0x10, 0x00, 0x00, 0x00, 0x10, 0x00, 0x00, 0x00, 0x03, 0x00, 0x00, 0x00,
  0x38, 0x00, 0x00, 0x00, 0x10, 0xff, 0xff, 0xff, 0x2a, 0x00, 0x00, 0x00,
  0x73, 0x65, 0x71, 0x75, 0x65, 0x6e, 0x74, 0x69, 0x61, 0x6c, 0x2f, 0x63,
  0x6f, 0x6e, 0x76, 0x32, 0x64, 0x5f, 0x31, 0x2f, 0x42, 0x69, 0x61, 0x73,
  0x41, 0x64, 0x64, 0x2f, 0x52, 0x65, 0x61, 0x64, 0x56, 0x61, 0x72, 0x69,
  0x61, 0x62, 0x6c, 0x65, 0x4f, 0x70, 0x00, 0x00, 0x01, 0x00, 0x00, 0x00,
  0x08, 0x00, 0x00, 0x00, 0x00, 0x00, 0x16, 0x00, 0x18, 0x00, 0x14, 0x00,
  0x00, 0x00, 0x10, 0x00, 0x0c, 0x00, 0x08, 0x00, 0x00, 0x00, 0x00, 0x00,
  0x00, 0x00, 0x07, 0x00, 0x16, 0x00, 0x00, 0x00, 0x00, 0x00, 0x00, 0x01,
  0x10, 0x00, 0x00, 0x00, 0x10, 0x00, 0x00, 0x00, 0x02, 0x00, 0x00, 0x00,
  0x38, 0x00, 0x00, 0x00, 0x7c, 0xff, 0xff, 0xff, 0x28, 0x00, 0x00, 0x00,
  0x73, 0x65, 0x71, 0x75, 0x65, 0x6e, 0x74, 0x69, 0x61, 0x6c, 0x2f, 0x63,
  0x6f, 0x6e, 0x76, 0x32, 0x64, 0x2f, 0x42, 0x69, 0x61, 0x73, 0x41, 0x64,
  0x64, 0x2f, 0x52, 0x65, 0x61, 0x64, 0x56, 0x61, 0x72, 0x69, 0x61, 0x62,
  0x6c, 0x65, 0x4f, 0x70, 0x00, 0x00, 0x00, 0x00, 0x01, 0x00, 0x00, 0x00,
  0x04, 0x00, 0x00, 0x00, 0x00, 0x00, 0x16, 0x00, 0x1c, 0x00, 0x18, 0x00,
  0x00, 0x00, 0x14, 0x00, 0x10, 0x00, 0x0c, 0x00, 0x00, 0x00, 0x00, 0x00,
  0x08, 0x00, 0x07, 0x00, 0x16, 0x00, 0x00, 0x00, 0x00, 0x00, 0x00, 0x01,
